{
  "version": "1.0",
  "truncation": null,
  "padding": null,
  "added_tokens": [
    {
      "id": 0,
      "content": "[UNK]",
      "single_word": false,
      "lstrip": false,
      "rstrip": false,
      "normalized": false,
      "special": true
    },
    {
      "id": 1,
      "content": "[CLS]",
      "single_word": false,
      "lstrip": false,
      "rstrip": false,
      "normalized": false,
      "special": true
    },
    {
      "id": 2,
      "content": "[SEP]",
      "single_word": false,
      "lstrip": false,
      "rstrip": false,
      "normalized": false,
      "special": true
    },
    {
      "id": 3,
      "content": "[PAD]",
      "single_word": false,
      "lstrip": false,
      "rstrip": false,
      "normalized": false,
      "special": true
    },
    {
      "id": 4,
      "content": "[MASK]",
      "single_word": false,
      "lstrip": false,
      "rstrip": false,
      "normalized": false,
      "special": true
    }
  ],
  "normalizer": null,
  "pre_tokenizer": {
    "type": "Sequence",
    "pretokenizers": [
      {
        "type": "Whitespace"
      }
    ]
  },
  "post_processor": null,
  "decoder": {
    "type": "WordPiece",
    "prefix": "##",
    "cleanup": true
  },
  "model": {
    "type": "BPE",
    "dropout": null,
    "unk_token": "[UNK]",
    "continuing_subword_prefix": "##",
    "end_of_word_suffix": null,
    "fuse_unk": false,
    "byte_fallback": false,
    "vocab": {
      "[UNK]": 0,
      "[CLS]": 1,
      "[SEP]": 2,
      "[PAD]": 3,
      "[MASK]": 4,
      "!": 5,
      "\"": 6,
      "#": 7,
      "&": 8,
      "'": 9,
      "(": 10,
      ")": 11,
      "*": 12,
      "+": 13,
      ",": 14,
      "-": 15,
      ".": 16,
      "/": 17,
      "0": 18,
      "1": 19,
      "2": 20,
      "3": 21,
      "4": 22,
      "5": 23,
      "6": 24,
      "7": 25,
      "8": 26,
      "9": 27,
      ":": 28,
      ";": 29,
      "<": 30,
      "=": 31,
      ">": 32,
      "?": 33,
      "A": 34,
      "B": 35,
      "C": 36,
      "D": 37,
      "E": 38,
      "F": 39,
      "G": 40,
      "H": 41,
      "I": 42,
      "J": 43,
      "K": 44,
      "L": 45,
      "M": 46,
      "N": 47,
      "O": 48,
      "P": 49,
      "Q": 50,
      "R": 51,
      "S": 52,
      "T": 53,
      "U": 54,
      "V": 55,
      "W": 56,
      "X": 57,
      "Y": 58,
      "Z": 59,
      "[": 60,
      "]": 61,
      "`": 62,
      "a": 63,
      "b": 64,
      "c": 65,
      "d": 66,
      "e": 67,
      "f": 68,
      "g": 69,
      "h": 70,
      "i": 71,
      "j": 72,
      "k": 73,
      "l": 74,
      "m": 75,
      "n": 76,
      "o": 77,
      "p": 78,
      "q": 79,
      "r": 80,
      "s": 81,
      "t": 82,
      "u": 83,
      "v": 84,
      "w": 85,
      "x": 86,
      "y": 87,
      "z": 88,
      "|": 89,
      "": 90,
      "¡": 91,
      "§": 92,
      "©": 93,
      "ª": 94,
      "«": 95,
      "°": 96,
      "´": 97,
      "¶": 98,
      "¸": 99,
      "º": 100,
      "»": 101,
      "Á": 102,
      "Â": 103,
      "Æ": 104,
      "Ç": 105,
      "È": 106,
      "É": 107,
      "Ë": 108,
      "Ì": 109,
      "Î": 110,
      "Ï": 111,
      "Ð": 112,
      "Ò": 113,
      "Ô": 114,
      "Õ": 115,
      "Ú": 116,
      "Ý": 117,
      "à": 118,
      "á": 119,
      "â": 120,
      "ã": 121,
      "ä": 122,
      "æ": 123,
      "ç": 124,
      "è": 125,
      "é": 126,
      "ë": 127,
      "ì": 128,
      "í": 129,
      "î": 130,
      "ï": 131,
      "ò": 132,
      "ó": 133,
      "÷": 134,
      "ù": 135,
      "ú": 136,
      "ü": 137,
      "ý": 138,
      "þ": 139,
      "ę": 140,
      "œ": 141,
      "Š": 142,
      "˜": 143,
      "α": 144,
      "β": 145,
      "γ": 146,
      "δ": 147,
      "ε": 148,
      "ζ": 149,
      "η": 150,
      "–": 151,
      "—": 152,
      "‘": 153,
      "’": 154,
      "‚": 155,
      "“": 156,
      "”": 157,
      "†": 158,
      "##m": 159,
      "##o": 160,
      "##n": 161,
      "##i": 162,
      "##t": 163,
      "##r": 164,
      "##w": 165,
      "##a": 166,
      "##Q": 167,
      "##u": 168,
      "##e": 169,
      "##l": 170,
      "##c": 171,
      "##s": 172,
      "##g": 173,
      "##f": 174,
      "##x": 175,
      "##v": 176,
      "##p": 177,
      "##b": 178,
      "##d": 179,
      "##h": 180,
      "##7": 181,
      "##0": 182,
      "##6": 183,
      "##D": 184,
      "##q": 185,
      "##E": 186,
      "##R": 187,
      "##S": 188,
      "##C": 189,
      "##U": 190,
      "##T": 191,
      "##I": 192,
      "##O": 193,
      "##N": 194,
      "##M": 195,
      "##j": 196,
      "##4": 197,
      "##A": 198,
      "##z": 199,
      "##3": 200,
      "##B": 201,
      "##V": 202,
      "##X": 203,
      "##8": 204,
      "##2": 205,
      "##y": 206,
      "##5": 207,
      "##æ": 208,
      "##1": 209,
      "##L": 210,
      "##F": 211,
      "##J": 212,
      "##P": 213,
      "##9": 214,
      "##ú": 215,
      "##,": 216,
      "##G": 217,
      "##k": 218,
      "##'": 219,
      "##-": 220,
      "##.": 221,
      "##H": 222,
      "##Õ": 223,
      "##)": 224,
      "##:": 225,
      "##œ": 226,
      "##>": 227,
      "##]": 228,
      "##Y": 229,
      "##ä": 230,
      "##ó": 231,
      "##Î": 232,
      "##Ò": 233,
      "##¶": 234,
      "##ª": 235,
      "##»": 236,
      "##È": 237,
      "##§": 238,
      "##â": 239,
      "##W": 240,
      "##”": 241,
      "##!": 242,
      "##Ï": 243,
      "##Ë": 244,
      "##|": 245,
      "##/": 246,
      "##K": 247,
      "##Z": 248,
      "##º": 249,
      "##«": 250,
      "##Ú": 251,
      "##+": 252,
      "##;": 253,
      "##é": 254,
      "##?": 255,
      "##[": 256,
      "##(": 257,
      "##’": 258,
      "##î": 259,
      "##ë": 260,
      "##ü": 261,
      "##É": 262,
      "##ì": 263,
      "##\"": 264,
      "##ò": 265,
      "##÷": 266,
      "##ù": 267,
      "##—": 268,
      "##*": 269,
      "##=": 270,
      "##á": 271,
      "##ę": 272,
      "##è": 273,
      "##Â": 274,
      "##ý": 275,
      "##ï": 276,
      "##Ô": 277,
      "##<": 278,
      "##&": 279,
      "##à": 280,
      "##ç": 281,
      "##†": 282,
      "##Á": 283,
      "##Š": 284,
      "##‘": 285,
      "##í": 286,
      "##er": 287,
      "##um": 288,
      "##ti": 289,
      "##it": 290,
      "##on": 291,
      "qu": 292,
      "##us": 293,
      "##en": 294,
      "##is": 295,
      "##at": 296,
      "##em": 297,
      "##ic": 298,
      "in": 299,
      "##st": 300,
      "##ur": 301,
      "##or": 302,
      "##am": 303,
      "##ec": 304,
      "##an": 305,
      "et": 306,
      "##un": 307,
      "##in": 308,
      "##et": 309,
      "##es": 310,
      "##li": 311,
      "##od": 312,
      "##ae": 313,
      "pr": 314,
      "##im": 315,
      "est": 316,
      "##ar": 317,
      "##ati": 318,
      "##qu": 319,
      "quod": 320,
      "##ut": 321,
      "##ed": 322,
      "non": 323,
      "##os": 324,
      "##id": 325,
      "ad": 326,
      "##ia": 327,
      "##unt": 328,
      "##om": 329,
      "con": 330,
      "dic": 331,
      "##el": 332,
      "per": 333,
      "##ib": 334,
      "su": 335,
      "##al": 336,
      "##ent": 337,
      "##oc": 338,
      "##as": 339,
      "##ul": 340,
      "de": 341,
      "##enti": 342,
      "##ci": 343,
      "ex": 344,
      "##ant": 345,
      "##dum": 346,
      "##ir": 347,
      "##itur": 348,
      "##ab": 349,
      "##atur": 350,
      "ali": 351,
      "##ot": 352,
      "##ud": 353,
      "##de": 354,
      "##ol": 355,
      "##ere": 356,
      "##ra": 357,
      "##ation": 358,
      "pro": 359,
      "##il": 360,
      "##ens": 361,
      "ut": 362,
      "##ecun": 363,
      "##iv": 364,
      "aut": 365,
      "##ss": 366,
      "##nim": 367,
      "##ac": 368,
      "##gn": 369,
      "##ius": 370,
      "##per": 371,
      "##orum": 372,
      "De": 373,
      "autem": 374,
      "##ter": 375,
      "secun": 376,
      "sic": 377,
      "quae": 378,
      "##ect": 379,
      "ess": 380,
      "##end": 381,
      "un": 382,
      "re": 383,
      "se": 384,
      "hoc": 385,
      "quia": 386,
      "##que": 387,
      "##ibus": 388,
      "ac": 389,
      "hab": 390,
      "##omin": 391,
      "##tion": 392,
      "##est": 393,
      "##go": 394,
      "secundum": 395,
      "sed": 396,
      "qui": 397,
      "##mn": 398,
      "aliqu": 399,
      "##ps": 400,
      "##lic": 401,
      "pot": 402,
      "omn": 403,
      "##ili": 404,
      "er": 405,
      "il": 406,
      "prop": 407,
      "##tin": 408,
      "int": 409,
      "##ium": 410,
      "##itat": 411,
      "Et": 412,
      "##ta": 413,
      "ver": 414,
      "sunt": 415,
      "cum": 416,
      "enim": 417,
      "##por": 418,
      "##etur": 419,
      "##tis": 420,
      "cor": 421,
      "si": 422,
      "##tum": 423,
      "esse": 424,
      "##iter": 425,
      "##ri": 426,
      "##ris": 427,
      "sp": 428,
      "##fic": 429,
      "ill": 430,
      "##cip": 431,
      "im": 432,
      "sicut": 433,
      "ips": 434,
      "cons": 435,
      "##do": 436,
      "##bi": 437,
      "vel": 438,
      "##tiam": 439,
      "##re": 440,
      "##bus": 441,
      "ide": 442,
      "##tus": 443,
      "ma": 444,
      "##uc": 445,
      "ca": 446,
      "Sed": 447,
      "prim": 448,
      "##endum": 449,
      "##ost": 450,
      "sci": 451,
      "com": 452,
      "div": 453,
      "ab": 454,
      "##eter": 455,
      "par": 456,
      "##tio": 457,
      "dicit": 458,
      "quam": 459,
      "vir": 460,
      "di": 461,
      "intel": 462,
      "##ion": 463,
      "##atio": 464,
      "Qu": 465,
      "sit": 466,
      "sub": 467,
      "##ess": 468,
      "##oss": 469,
      "##atis": 470,
      "##entia": 471,
      "##antum": 472,
      "##eb": 473,
      "potest": 474,
      "##tit": 475,
      "natur": 476,
      "##ari": 477,
      "Ch": 478,
      "##ationem": 479,
      "##are": 480,
      "etiam": 481,
      "cont": 482,
      "##ecc": 483,
      "pra": 484,
      "pecc": 485,
      "bon": 486,
      "vid": 487,
      "anim": 488,
      "##uit": 489,
      "##ali": 490,
      "co": 491,
      "##pp": 492,
      "nec": 493,
      "##iss": 494,
      "Chris": 495,
      "dicitur": 496,
      "##atum": 497,
      "##io": 498,
      "fac": 499,
      "##ff": 500,
      "##ers": 501,
      "mod": 502,
      "for": 503,
      "quid": 504,
      "ter": 505,
      "pat": 506,
      "Ad": 507,
      "prae": 508,
      "du": 509,
      "sim": 510,
      "##lig": 511,
      "##ven": 512,
      "##ob": 513,
      "##licet": 514,
      "dis": 515,
      "scilicet": 516,
      "##te": 517,
      "ergo": 518,
      "##itatem": 519,
      "sol": 520,
      "##eg": 521,
      "##eri": 522,
      "##ap": 523,
      "##itas": 524,
      "or": 525,
      "homin": 526,
      "##ov": 527,
      "##di": 528,
      "poss": 529,
      "##ine": 530,
      "##op": 531,
      "##cc": 532,
      "res": 533,
      "##erunt": 534,
      "##tionem": 535,
      "##atione": 536,
      "dicendum": 537,
      "tam": 538,
      "##av": 539,
      "Er": 540,
      "inf": 541,
      "##alis": 542,
      "prin": 543,
      "qua": 544,
      "am": 545,
      "##unc": 546,
      "Ergo": 547,
      "tr": 548,
      "##anc": 549,
      "super": 550,
      "me": 551,
      "princip": 552,
      "##untur": 553,
      "##dam": 554,
      "caus": 555,
      "##ep": 556,
      "ideo": 557,
      "##eci": 558,
      "domin": 559,
      "##to": 560,
      "##tia": 561,
      "man": 562,
      "##tu": 563,
      "mor": 564,
      "quo": 565,
      "##itum": 566,
      "vol": 567,
      "propter": 568,
      "id": 569,
      "##antur": 570,
      "gen": 571,
      "##ando": 572,
      "##inem": 573,
      "corpor": 574,
      "imp": 575,
      "pl": 576,
      "##arum": 577,
      "##rum": 578,
      "Un": 579,
      "al": 580,
      "##irc": 581,
      "##ata": 582,
      "mul": 583,
      "##inis": 584,
      "oper": 585,
      "##gni": 586,
      "##ans": 587,
      "##dic": 588,
      "idest": 589,
      "##II": 590,
      "tem": 591,
      "pon": 592,
      "fili": 593,
      "##entiam": 594,
      "##hil": 595,
      "##uius": 596,
      "##le": 597,
      "##itate": 598,
      "tamen": 599,
      "##entes": 600,
      "spir": 601,
      "Dei": 602,
      "##ug": 603,
      "##equ": 604,
      "mat": 605,
      "##itus": 606,
      "acc": 607,
      "##gis": 608,
      "an": 609,
      "ibi": 610,
      "##lect": 611,
      "ar": 612,
      "##isi": 613,
      "eius": 614,
      "intellig": 615,
      "form": 616,
      "deb": 617,
      "comm": 618,
      "car": 619,
      "##erea": 620,
      "divin": 621,
      "##ior": 622,
      "##iam": 623,
      "##jus": 624,
      "inter": 625,
      "app": 626,
      "quantum": 627,
      "habet": 628,
      "ita": 629,
      "Pr": 630,
      "vero": 631,
      "Deus": 632,
      "comp": 633,
      "##pus": 634,
      "contra": 635,
      "ob": 636,
      "inc": 637,
      "st": 638,
      "aliquid": 639,
      "Pra": 640,
      "##erit": 641,
      "##aci": 642,
      "Unde": 643,
      "##eterea": 644,
      "##aliter": 645,
      "intellect": 646,
      "gr": 647,
      "nisi": 648,
      "Praeterea": 649,
      "##ibil": 650,
      "unde": 651,
      "ceter": 652,
      "##git": 653,
      "##up": 654,
      "##itatis": 655,
      "##tem": 656,
      "##atus": 657,
      "##ationis": 658,
      "##omo": 659,
      "ne": 660,
      "##tim": 661,
      "fid": 662,
      "sanc": 663,
      "##gitur": 664,
      "ea": 665,
      "modo": 666,
      "sac": 667,
      "Deo": 668,
      "hum": 669,
      "quas": 670,
      "ost": 671,
      "primo": 672,
      "##tic": 673,
      "##pon": 674,
      "circ": 675,
      "##port": 676,
      "In": 677,
      "##tione": 678,
      "##endit": 679,
      "##aec": 680,
      "##ram": 681,
      "perf": 682,
      "cetera": 683,
      "##les": 684,
      "lib": 685,
      "vit": 686,
      "ord": 687,
      "des": 688,
      "mal": 689,
      "fi": 690,
      "##plic": 691,
      "##stan": 692,
      "##ibi": 693,
      "volunt": 694,
      "##erv": 695,
      "homo": 696,
      "##tr": 697,
      "conc": 698,
      "magis": 699,
      "mot": 700,
      "##iti": 701,
      "##ui": 702,
      "An": 703,
      "gener": 704,
      "necess": 705,
      "po": 706,
      "##ass": 707,
      "post": 708,
      "##ider": 709,
      "##min": 710,
      "loc": 711,
      "praedic": 712,
      "##imus": 713,
      "sens": 714,
      "grati": 715,
      "cre": 716,
      "##quam": 717,
      "primum": 718,
      "Christi": 719,
      "##tut": 720,
      "quidem": 721,
      "##entis": 722,
      "illud": 723,
      "eo": 724,
      "quibus": 725,
      "##mod": 726,
      "##veni": 727,
      "virtut": 728,
      "pers": 729,
      "videtur": 730,
      "speci": 731,
      "##itu": 732,
      "simil": 733,
      "##edi": 734,
      "leg": 735,
      "proc": 736,
      "##obis": 737,
      "sin": 738,
      "quasi": 739,
      "##ffic": 740,
      "rem": 741,
      "##entum": 742,
      "##entiae": 743,
      "##ale": 744,
      "omnia": 745,
      "##entur": 746,
      "##dem": 747,
      "cr": 748,
      "verb": 749,
      "cogn": 750,
      "##itud": 751,
      "ag": 752,
      "contin": 753,
      "##ate": 754,
      "ven": 755,
      "sem": 756,
      "##ectum": 757,
      "##ull": 758,
      "##tium": 759,
      "faci": 760,
      "##ator": 761,
      "##eret": 762,
      "tu": 763,
      "igitur": 764,
      "##ionem": 765,
      "sequ": 766,
      "eorum": 767,
      "##ro": 768,
      "nost": 769,
      "sup": 770,
      "sum": 771,
      "##ist": 772,
      "conf": 773,
      "tot": 774,
      "Secun": 775,
      "ap": 776,
      "quando": 777,
      "##erat": 778,
      "eum": 779,
      "bonum": 780,
      "mov": 781,
      "exc": 782,
      "eis": 783,
      "pertin": 784,
      "fu": 785,
      "human": 786,
      "##udic": 787,
      "oport": 788,
      "##edit": 789,
      "unum": 790,
      "##isc": 791,
      "##osi": 792,
      "##ell": 793,
      "##iae": 794,
      "substan": 795,
      "tempor": 796,
      ".,": 797,
      "##avit": 798,
      "peccatum": 799,
      "##osc": 800,
      "##ustin": 801,
      "##endo": 802,
      "reg": 803,
      "supra": 804,
      "dictum": 805,
      "cae": 806,
      "omnes": 807,
      "##tionis": 808,
      "at": 809,
      "##ente": 810,
      "null": 811,
      "##xit": 812,
      "##tibus": 813,
      "facit": 814,
      "##gu": 815,
      "mun": 816,
      "ni": 817,
      "ei": 818,
      "##eria": 819,
      "##orem": 820,
      "ass": 821,
      "divers": 822,
      "solum": 823,
      "pass": 824,
      "def": 825,
      "anima": 826,
      "##if": 827,
      "##ert": 828,
      "##ita": 829,
      "haec": 830,
      "erat": 831,
      "causa": 832,
      "##alem": 833,
      "##ato": 834,
      "oportet": 835,
      "##imo": 836,
      "sibi": 837,
      "Ecc": 838,
      "inqu": 839,
      "Si": 840,
      "fr": 841,
      "##eat": 842,
      "alter": 843,
      "commun": 844,
      "##erum": 845,
      "poen": 846,
      "##abil": 847,
      "##ebat": 848,
      "huius": 849,
      "circa": 850,
      "Deum": 851,
      "cap": 852,
      "gl": 853,
      "ind": 854,
      "Ang": 855,
      "ius": 856,
      "##atem": 857,
      "duo": 858,
      "ist": 859,
      "##andum": 860,
      "##tiv": 861,
      "sc": 862,
      "##uli": 863,
      "fuit": 864,
      "ins": 865,
      "##oph": 866,
      "patet": 867,
      "aliquis": 868,
      "##ub": 869,
      "nihil": 870,
      "##ys": 871,
      "rationem": 872,
      "imm": 873,
      "praec": 874,
      "##vers": 875,
      "Aug": 876,
      "ejus": 877,
      "##lius": 878,
      "cognosc": 879,
      "red": 880,
      "##gnific": 881,
      "op": 882,
      "corpus": 883,
      "sep": 884,
      "accid": 885,
      "##pl": 886,
      "sine": 887,
      "min": 888,
      "Augustin": 889,
      "##eli": 890,
      "dec": 891,
      "##str": 892,
      "##ifest": 893,
      "##oqu": 894,
      "sal": 895,
      "##ig": 896,
      "eff": 897,
      "##eti": 898,
      "spiritu": 899,
      "esset": 900,
      "accip": 901,
      "ign": 902,
      "##endi": 903,
      "person": 904,
      "ipsum": 905,
      "magn": 906,
      "hic": 907,
      "##ex": 908,
      "trans": 909,
      "Dic": 910,
      "ostendit": 911,
      "materia": 912,
      "consider": 913,
      "Non": 914,
      "rec": 915,
      "##entibus": 916,
      "diff": 917,
      "inv": 918,
      "omnibus": 919,
      "##ectus": 920,
      "propri": 921,
      "ul": 922,
      "##entem": 923,
      "##modi": 924,
      "praes": 925,
      "actus": 926,
      "##ore": 927,
      "sacram": 928,
      "##aud": 929,
      "nobis": 930,
      "##ei": 931,
      "##pliciter": 932,
      "##irm": 933,
      "##enter": 934,
      "##dit": 935,
      "##ativ": 936,
      "us": 937,
      "##ationes": 938,
      "del": 939,
      "ordin": 940,
      "ipse": 941,
      "##and": 942,
      "rep": 943,
      "##th": 944,
      "his": 945,
      "##ecip": 946,
      "##xim": 947,
      "glor": 948,
      "##ura": 949,
      "Secundo": 950,
      "perfec": 951,
      "ratio": 952,
      "##ene": 953,
      "secundo": 954,
      "signific": 955,
      "##ulus": 956,
      "dominus": 957,
      "univ": 958,
      "tantum": 959,
      "occ": 960,
      "##ione": 961,
      "contr": 962,
      "vis": 963,
      "natura": 964,
      "##ales": 965,
      "Quod": 966,
      "##ici": 967,
      "abs": 968,
      "nos": 969,
      "alia": 970,
      "exp": 971,
      "parte": 972,
      "illa": 973,
      "ratione": 974,
      "civ": 975,
      "aud": 976,
      "##osoph": 977,
      "serv": 978,
      "##umque": 979,
      "manifest": 980,
      "##tiae": 981,
      "eos": 982,
      "##hilosoph": 983,
      "intellectus": 984,
      "idem": 985,
      "##ini": 986,
      "sua": 987,
      "##api": 988,
      "doc": 989,
      "##tor": 990,
      "philosoph": 991,
      "univers": 992,
      "Sic": 993,
      "med": 994,
      "##ibile": 995,
      "motus": 996,
      "quem": 997,
      "##inde": 998,
      "num": 999,
      "##ag": 1000,
      "neque": 1001,
      "##tra": 1002,
      "##ern": 1003,
      "suam": 1004,
      "Primo": 1005,
      "quaedam": 1006,
      "aliis": 1007,
      "Augustinus": 1008,
      "etc": 1009,
      "##ux": 1010,
      "##ive": 1011,
      "##ire": 1012,
      "##ujus": 1013,
      "nomin": 1014,
      "##atu": 1015,
      "##titud": 1016,
      "##rip": 1017,
      "##und": 1018,
      "Christus": 1019,
      "Eccles": 1020,
      "##ign": 1021,
      "##rae": 1022,
      "pa": 1023,
      "deter": 1024,
      "actu": 1025,
      "sequitur": 1026,
      "aliqua": 1027,
      "sint": 1028,
      "en": 1029,
      "sapi": 1030,
      "##ula": 1031,
      "creatur": 1032,
      "semper": 1033,
      "utrum": 1034,
      "naturae": 1035,
      "potentia": 1036,
      "loqu": 1037,
      "modum": 1038,
      "ponit": 1039,
      "##etern": 1040,
      "aff": 1041,
      "##gr": 1042,
      "inquantum": 1043,
      "##ult": 1044,
      "##vis": 1045,
      "cl": 1046,
      "voc": 1047,
      "##aria": 1048,
      "cogni": 1049,
      "apost": 1050,
      "##emon": 1051,
      "determin": 1052,
      "consequ": 1053,
      "iudic": 1054,
      "##bet": 1055,
      "ipsa": 1056,
      "##oris": 1057,
      "lic": 1058,
      "aliud": 1059,
      "aetern": 1060,
      "##ibili": 1061,
      "sive": 1062,
      "##tius": 1063,
      "el": 1064,
      "##alia": 1065,
      "##ch": 1066,
      "##urr": 1067,
      "animae": 1068,
      "col": 1069,
      "carn": 1070,
      "eam": 1071,
      "##ii": 1072,
      "imper": 1073,
      "erit": 1074,
      "##rig": 1075,
      "##ores": 1076,
      "fit": 1077,
      "virtu": 1078,
      "una": 1079,
      "ante": 1080,
      "plur": 1081,
      "Angel": 1082,
      "##ebant": 1083,
      "Item": 1084,
      "mis": 1085,
      "##lud": 1086,
      "##arium": 1087,
      "virtus": 1088,
      "Deinde": 1089,
      "subi": 1090,
      "distin": 1091,
      "viv": 1092,
      "forma": 1093,
      "spiritus": 1094,
      "hominis": 1095,
      "##lex": 1096,
      "gra": 1097,
      "proced": 1098,
      "cred": 1099,
      "##alibus": 1100,
      "Mat": 1101,
      "tim": 1102,
      "##esc": 1103,
      "suum": 1104,
      "##eretur": 1105,
      "delect": 1106,
      "dili": 1107,
      "habent": 1108,
      "quis": 1109,
      "Con": 1110,
      "prius": 1111,
      "##aret": 1112,
      "tra": 1113,
      "##oli": 1114,
      "Ps": 1115,
      "san": 1116,
      "pop": 1117,
      "##ionis": 1118,
      "##emus": 1119,
      "##tific": 1120,
      "tunc": 1121,
      "Ter": 1122,
      "ubi": 1123,
      "##ito": 1124,
      "be": 1125,
      "naturam": 1126,
      "##itt": 1127,
      "sign": 1128,
      "Is": 1129,
      "##hib": 1130,
      "##ulum": 1131,
      "prob": 1132,
      "ten": 1133,
      "huiusmodi": 1134,
      "prima": 1135,
      "##reg": 1136,
      "disp": 1137,
      "possunt": 1138,
      "principium": 1139,
      "bene": 1140,
      "propr": 1141,
      "##erc": 1142,
      "##ann": 1143,
      "##isse": 1144,
      "##rim": 1145,
      "##eris": 1146,
      "##antes": 1147,
      "Matth": 1148,
      "te": 1149,
      "nov": 1150,
      "cael": 1151,
      "finem": 1152,
      "sus": 1153,
      "filius": 1154,
      "mon": 1155,
      "Ar": 1156,
      "rel": 1157,
      "##orm": 1158,
      "##rup": 1159,
      "debet": 1160,
      "simul": 1161,
      "omnis": 1162,
      "dixit": 1163,
      "##empl": 1164,
      "##odo": 1165,
      "##aris": 1166,
      "possit": 1167,
      "tempore": 1168,
      "malum": 1169,
      "tertium": 1170,
      "pertinet": 1171,
      "##ver": 1172,
      "##ulo": 1173,
      "apostol": 1174,
      "##ang": 1175,
      "fal": 1176,
      "##tes": 1177,
      "##bit": 1178,
      "corporis": 1179,
      "Ex": 1180,
      "infin": 1181,
      "opp": 1182,
      "cuius": 1183,
      "obs": 1184,
      "maxim": 1185,
      "##ad": 1186,
      "##enta": 1187,
      "divina": 1188,
      "##deo": 1189,
      "hon": 1190,
      "spec": 1191,
      "Vid": 1192,
      "##amus": 1193,
      "cul": 1194,
      "##ord": 1195,
      "##imum": 1196,
      "Christo": 1197,
      "sui": 1198,
      "##III": 1199,
      "alic": 1200,
      "Res": 1201,
      "##ectio": 1202,
      "##ite": 1203,
      "fec": 1204,
      "Io": 1205,
      "##iis": 1206,
      "##ips": 1207,
      "nam": 1208,
      "quin": 1209,
      "ille": 1210,
      "resp": 1211,
      "ep": 1212,
      "ipso": 1213,
      "gratia": 1214,
      "pati": 1215,
      "don": 1216,
      "##sum": 1217,
      "habere": 1218,
      "mens": 1219,
      "aliquo": 1220,
      "conveni": 1221,
      "##da": 1222,
      "##reh": 1223,
      "homines": 1224,
      "##libet": 1225,
      "similitud": 1226,
      "ref": 1227,
      "##ero": 1228,
      "suo": 1229,
      "##omodo": 1230,
      "fl": 1231,
      "praecep": 1232,
      "##ectu": 1233,
      "rei": 1234,
      "##ias": 1235,
      "proph": 1236,
      "XX": 1237,
      "Vel": 1238,
      "dim": 1239,
      "##omen": 1240,
      "##tur": 1241,
      "##tam": 1242,
      "aequ": 1243,
      "seips": 1244,
      "mem": 1245,
      "##vit": 1246,
      "Respon": 1247,
      "jus": 1248,
      "mut": 1249,
      "##hi": 1250,
      "##rem": 1251,
      "##ulis": 1252,
      "uti": 1253,
      "mi": 1254,
      "iusti": 1255,
      "rerum": 1256,
      "inven": 1257,
      "dil": 1258,
      "ipsius": 1259,
      "II": 1260,
      "Rom": 1261,
      "respon": 1262,
      "nunc": 1263,
      "##quir": 1264,
      "Nam": 1265,
      "bona": 1266,
      "licet": 1267,
      "aqu": 1268,
      "##entium": 1269,
      "illi": 1270,
      "##uta": 1271,
      "oc": 1272,
      "vi": 1273,
      "##iens": 1274,
      "ration": 1275,
      "verbum": 1276,
      "##uper": 1277,
      "##asc": 1278,
      "ostend": 1279,
      "quidam": 1280,
      "pos": 1281,
      "##inqu": 1282,
      "nomen": 1283,
      "differ": 1284,
      "Circ": 1285,
      "dix": 1286,
      "fieri": 1287,
      "regn": 1288,
      "omne": 1289,
      "##ento": 1290,
      "vest": 1291,
      "corpore": 1292,
      "rebus": 1293,
      "Cum": 1294,
      "Dicit": 1295,
      "##oniam": 1296,
      "##esti": 1297,
      "liber": 1298,
      "Ali": 1299,
      "dicens": 1300,
      "ego": 1301,
      "##ym": 1302,
      "quamvis": 1303,
      "vita": 1304,
      "##titu": 1305,
      "tempus": 1306,
      "dilig": 1307,
      "##dus": 1308,
      "##ina": 1309,
      "omni": 1310,
      "Circa": 1311,
      "fut": 1312,
      "##inc": 1313,
      "praeter": 1314,
      "##enda": 1315,
      "##iones": 1316,
      "separ": 1317,
      "##ibilis": 1318,
      "unus": 1319,
      "pater": 1320,
      "intellectu": 1321,
      "materi": 1322,
      "mali": 1323,
      "eadem": 1324,
      "##ino": 1325,
      "disc": 1326,
      "suis": 1327,
      "sing": 1328,
      "omnium": 1329,
      "similiter": 1330,
      "Quia": 1331,
      "##anto": 1332,
      "quan": 1333,
      "suae": 1334,
      "supp": 1335,
      "usque": 1336,
      "ann": 1337,
      "##tiones": 1338,
      "multi": 1339,
      "neg": 1340,
      "domini": 1341,
      "minus": 1342,
      "cur": 1343,
      "dicuntur": 1344,
      "dici": 1345,
      "vitae": 1346,
      "die": 1347,
      "convers": 1348,
      "opin": 1349,
      "dign": 1350,
      "##titur": 1351,
      "vos": 1352,
      "illum": 1353,
      "as": 1354,
      "##venit": 1355,
      "Videtur": 1356,
      "##ositum": 1357,
      "##isset": 1358,
      "aliquod": 1359,
      "Cor": 1360,
      "quomodo": 1361,
      "virtutem": 1362,
      "species": 1363,
      "##ecta": 1364,
      "facere": 1365,
      "termin": 1366,
      "exist": 1367,
      "##ph": 1368,
      "ir": 1369,
      "consili": 1370,
      "quos": 1371,
      "Tertio": 1372,
      "Hoc": 1373,
      "praem": 1374,
      "##udae": 1375,
      "prom": 1376,
      "##uum": 1377,
      "##omus": 1378,
      "##urg": 1379,
      "##ima": 1380,
      "exter": 1381,
      "##erent": 1382,
      "quar": 1383,
      "alio": 1384,
      "##elic": 1385,
      "indi": 1386,
      "##fici": 1387,
      "frat": 1388,
      "vobis": 1389,
      "beati": 1390,
      "adh": 1391,
      "##duc": 1392,
      "tria": 1393,
      "##og": 1394,
      "##int": 1395,
      "dum": 1396,
      "sec": 1397,
      "##torum": 1398,
      "Gl": 1399,
      "verum": 1400,
      "##andi": 1401,
      "Respondeo": 1402,
      "recip": 1403,
      "##iscop": 1404,
      "Sc": 1405,
      "mir": 1406,
      "quaes": 1407,
      "ecc": 1408,
      "pu": 1409,
      "##itati": 1410,
      "##ier": 1411,
      "simpliciter": 1412,
      "##quid": 1413,
      "ponitur": 1414,
      "finis": 1415,
      "partes": 1416,
      "es": 1417,
      "obi": 1418,
      "vic": 1419,
      "##ticulus": 1420,
      "suffic": 1421,
      "corrup": 1422,
      "pars": 1423,
      "iam": 1424,
      "discip": 1425,
      "accep": 1426,
      "assum": 1427,
      "Christum": 1428,
      "duc": 1429,
      "causam": 1430,
      "divinae": 1431,
      "prod": 1432,
      "ultim": 1433,
      "##ante": 1434,
      "##aptis": 1435,
      "contrari": 1436,
      "##eric": 1437,
      "##aptism": 1438,
      "actum": 1439,
      "Gloss": 1440,
      "illis": 1441,
      "quoniam": 1442,
      "##estim": 1443,
      "peccato": 1444,
      "substantia": 1445,
      "##ue": 1446,
      "exerc": 1447,
      "accipi": 1448,
      "gratiam": 1449,
      "prov": 1450,
      "##etr": 1451,
      "##odem": 1452,
      "##oll": 1453,
      "hominem": 1454,
      "auc": 1455,
      "culp": 1456,
      "compar": 1457,
      "maxime": 1458,
      "virtutis": 1459,
      "Articulus": 1460,
      "##abit": 1461,
      "##tae": 1462,
      "erant": 1463,
      "##erm": 1464,
      "philosophus": 1465,
      "ista": 1466,
      "virtute": 1467,
      "grav": 1468,
      "parti": 1469,
      "##ori": 1470,
      "Hic": 1471,
      "##ret": 1472,
      "accidens": 1473,
      "minis": 1474,
      "Psal": 1475,
      "cui": 1476,
      "iter": 1477,
      "uno": 1478,
      "quorum": 1479,
      "ur": 1480,
      "##obil": 1481,
      "##ilia": 1482,
      "##alium": 1483,
      "inferi": 1484,
      "mihi": 1485,
      "luc": 1486,
      "terra": 1487,
      "##erant": 1488,
      "##onem": 1489,
      "##plex": 1490,
      "totum": 1491,
      "ev": 1492,
      "desc": 1493,
      "vitam": 1494,
      "concup": 1495,
      "voluntas": 1496,
      "quandoque": 1497,
      "filii": 1498,
      "##uerunt": 1499,
      "##lin": 1500,
      "sacer": 1501,
      "##tud": 1502,
      "Baptism": 1503,
      "mil": 1504,
      "muli": 1505,
      "amic": 1506,
      "not": 1507,
      "talis": 1508,
      "intenti": 1509,
      "fin": 1510,
      "noc": 1511,
      "dol": 1512,
      "##ecte": 1513,
      "superior": 1514,
      "Th": 1515,
      "dep": 1516,
      "Qua": 1517,
      "effectus": 1518,
      "futur": 1519,
      "effic": 1520,
      "essentia": 1521,
      "maior": 1522,
      "##icem": 1523,
      "concupisc": 1524,
      "fidei": 1525,
      "III": 1526,
      "##istit": 1527,
      "animam": 1528,
      "aliquam": 1529,
      "##ort": 1530,
      "formam": 1531,
      "Glossa": 1532,
      "##imil": 1533,
      "hujus": 1534,
      "##ecto": 1535,
      "eodem": 1536,
      "scientia": 1537,
      "lab": 1538,
      "peccati": 1539,
      "demon": 1540,
      "desider": 1541,
      "##iet": 1542,
      "episcop": 1543,
      "appeti": 1544,
      "auctor": 1545,
      "fidem": 1546,
      "judic": 1547,
      "poenit": 1548,
      "tertio": 1549,
      "##oribus": 1550,
      "##rin": 1551,
      "dicat": 1552,
      "##one": 1553,
      "apud": 1554,
      "particip": 1555,
      "loco": 1556,
      "hanc": 1557,
      "induc": 1558,
      "val": 1559,
      "fig": 1560,
      "lum": 1561,
      "##atorum": 1562,
      "tibi": 1563,
      "##ial": 1564,
      "multa": 1565,
      "tur": 1566,
      "boni": 1567,
      "hac": 1568,
      "facta": 1569,
      "ini": 1570,
      "proceditur": 1571,
      "fuerit": 1572,
      "##ibu": 1573,
      "perm": 1574,
      "illius": 1575,
      "adhuc": 1576,
      "exempl": 1577,
      "hos": 1578,
      "circum": 1579,
      "intellectum": 1580,
      "salv": 1581,
      "requir": 1582,
      "imposs": 1583,
      "necesse": 1584,
      "cer": 1585,
      "##ust": 1586,
      "##antia": 1587,
      "sancti": 1588,
      "rationis": 1589,
      "##ios": 1590,
      "libro": 1591,
      "praecip": 1592,
      "demonstr": 1593,
      "##anis": 1594,
      "divid": 1595,
      "tan": 1596,
      "Hier": 1597,
      "gratiae": 1598,
      "11": 1599,
      "inn": 1600,
      "sangu": 1601,
      "laud": 1602,
      "quaer": 1603,
      "Sicut": 1604,
      "##itter": 1605,
      "dicere": 1606,
      "distinc": 1607,
      "##ulos": 1608,
      "##edic": 1609,
      "gaud": 1610,
      "ordinem": 1611,
      "contingit": 1612,
      "Est": 1613,
      "dir": 1614,
      "atque": 1615,
      "##atae": 1616,
      "hominum": 1617,
      "Ev": 1618,
      "mortu": 1619,
      "Ies": 1620,
      "divis": 1621,
      "Iudae": 1622,
      "##rib": 1623,
      "##abat": 1624,
      "quantit": 1625,
      "essentiam": 1626,
      "Scrip": 1627,
      "virtutes": 1628,
      "legis": 1629,
      "incon": 1630,
      "##ectionem": 1631,
      "posset": 1632,
      "prof": 1633,
      "##ebatur": 1634,
      "##ora": 1635,
      "##ositio": 1636,
      "att": 1637,
      "habeat": 1638,
      "sex": 1639,
      "##iab": 1640,
      "nun": 1641,
      "##lus": 1642,
      "multitud": 1643,
      "rev": 1644,
      "locum": 1645,
      "##ev": 1646,
      "##atuor": 1647,
      "priv": 1648,
      "unius": 1649,
      "plen": 1650,
      "doctr": 1651,
      "peccata": 1652,
      "dupliciter": 1653,
      "sensus": 1654,
      "ens": 1655,
      "err": 1656,
      "conv": 1657,
      "urb": 1658,
      "filium": 1659,
      "mundi": 1660,
      "Angeli": 1661,
      "##uci": 1662,
      "speciem": 1663,
      "##har": 1664,
      "##uti": 1665,
      "subdit": 1666,
      "corpora": 1667,
      "##ani": 1668,
      "illo": 1669,
      "prophet": 1670,
      "ipsi": 1671,
      "aur": 1672,
      "cal": 1673,
      "Chr": 1674,
      "##eant": 1675,
      "singul": 1676,
      "##atim": 1677,
      "##erus": 1678,
      "beatitud": 1679,
      "fug": 1680,
      "medium": 1681,
      "10": 1682,
      "caeles": 1683,
      "Evang": 1684,
      "##tiva": 1685,
      "substanti": 1686,
      "prud": 1687,
      "Chrys": 1688,
      "dicunt": 1689,
      "##etit": 1690,
      "Chrysost": 1691,
      "coni": 1692,
      "proprie": 1693,
      "##ecti": 1694,
      "alii": 1695,
      "fam": 1696,
      "##ludit": 1697,
      "impossibile": 1698,
      "quodam": 1699,
      "plus": 1700,
      "##titia": 1701,
      "principio": 1702,
      "specie": 1703,
      "##abile": 1704,
      "quatuor": 1705,
      "##ea": 1706,
      "verba": 1707,
      "Ecclesiae": 1708,
      "motum": 1709,
      "nomine": 1710,
      "dam": 1711,
      "habitus": 1712,
      "##iunt": 1713,
      "apostolus": 1714,
      "##ific": 1715,
      "fals": 1716,
      "opera": 1717,
      "mer": 1718,
      "Domin": 1719,
      "vult": 1720,
      "exterior": 1721,
      "defini": 1722,
      "orig": 1723,
      "##bra": 1724,
      "genere": 1725,
      "ignor": 1726,
      "##tib": 1727,
      "##lia": 1728,
      "adm": 1729,
      "mort": 1730,
      "##abilis": 1731,
      "condi": 1732,
      "##idem": 1733,
      "fecit": 1734,
      "tris": 1735,
      "advers": 1736,
      "is": 1737,
      "##aemon": 1738,
      "extr": 1739,
      "##idit": 1740,
      "##yp": 1741,
      "indiv": 1742,
      "patris": 1743,
      "manifestum": 1744,
      "naturalis": 1745,
      "virg": 1746,
      "##antis": 1747,
      "voluntatem": 1748,
      "hominibus": 1749,
      "naturaliter": 1750,
      "##res": 1751,
      "statu": 1752,
      "ipsam": 1753,
      "veritatem": 1754,
      "domino": 1755,
      "nulla": 1756,
      "Greg": 1757,
      "IV": 1758,
      "factum": 1759,
      "##itiv": 1760,
      "rex": 1761,
      "subs": 1762,
      "voluntatis": 1763,
      "##abant": 1764,
      "pul": 1765,
      "alterius": 1766,
      "##atam": 1767,
      "Gregor": 1768,
      "Nec": 1769,
      "terr": 1770,
      "opus": 1771,
      "prohib": 1772,
      "persona": 1773,
      "relig": 1774,
      "arbit": 1775,
      "serm": 1776,
      "formae": 1777,
      "partic": 1778,
      "##averunt": 1779,
      "ux": 1780,
      "##rac": 1781,
      "##ebr": 1782,
      "terram": 1783,
      "infirm": 1784,
      "Per": 1785,
      "Ut": 1786,
      "##yl": 1787,
      "Chrysostomus": 1788,
      "Cap": 1789,
      "##ativa": 1790,
      "summ": 1791,
      "invenitur": 1792,
      "Am": 1793,
      "propria": 1794,
      "sacramentum": 1795,
      "##fac": 1796,
      "mortem": 1797,
      "procedit": 1798,
      "quare": 1799,
      "medi": 1800,
      "iterum": 1801,
      "litter": 1802,
      "nullus": 1803,
      "humana": 1804,
      "Ioann": 1805,
      "fides": 1806,
      "miseric": 1807,
      "inde": 1808,
      "fruc": 1809,
      "spiritum": 1810,
      "elem": 1811,
      "pauper": 1812,
      "XI": 1813,
      "##uv": 1814,
      "filio": 1815,
      "omnino": 1816,
      "appar": 1817,
      "##quis": 1818,
      "Isa": 1819,
      "tres": 1820,
      "patre": 1821,
      "mo": 1822,
      "##ill": 1823,
      "##uo": 1824,
      "XV": 1825,
      "pac": 1826,
      "pros": 1827,
      "##rob": 1828,
      "proxim": 1829,
      "##greg": 1830,
      "dom": 1831,
      "off": 1832,
      "imag": 1833,
      "secunda": 1834,
      "aliter": 1835,
      "##itates": 1836,
      "Qui": 1837,
      "quartum": 1838,
      "salut": 1839,
      "##arius": 1840,
      "ignis": 1841,
      "cujus": 1842,
      "sanctus": 1843,
      "damn": 1844,
      "expon": 1845,
      "Daemon": 1846,
      "##onis": 1847,
      "aug": 1848,
      "cas": 1849,
      "inst": 1850,
      "genus": 1851,
      "##eatur": 1852,
      "##ationibus": 1853,
      "##onium": 1854,
      "Ph": 1855,
      "em": 1856,
      "##eo": 1857,
      "pen": 1858,
      "proprium": 1859,
      "##ebit": 1860,
      "similitudinem": 1861,
      "Jo": 1862,
      "##onit": 1863,
      "assign": 1864,
      "Ecclesia": 1865,
      "##sus": 1866,
      "##ugn": 1867,
      "##tos": 1868,
      "principia": 1869,
      "necessitate": 1870,
      "##ensum": 1871,
      "pertinent": 1872,
      "##modo": 1873,
      "ait": 1874,
      "dist": 1875,
      "nostra": 1876,
      "Diab": 1877,
      "ha": 1878,
      "##isti": 1879,
      "resurr": 1880,
      "movetur": 1881,
      "od": 1882,
      "Il": 1883,
      "bono": 1884,
      "to": 1885,
      "homine": 1886,
      "attr": 1887,
      "consistit": 1888,
      "cognitionem": 1889,
      "nullo": 1890,
      "respond": 1891,
      "##itudinem": 1892,
      "particul": 1893,
      "##cumque": 1894,
      "mala": 1895,
      "asc": 1896,
      "cogit": 1897,
      "##issim": 1898,
      "ordine": 1899,
      "##ua": 1900,
      "##ach": 1901,
      "##ros": 1902,
      "##tiss": 1903,
      "maj": 1904,
      "absol": 1905,
      "duas": 1906,
      "indig": 1907,
      "poena": 1908,
      "##ibilia": 1909,
      "imped": 1910,
      "alicuius": 1911,
      "puta": 1912,
      "##emp": 1913,
      "respectu": 1914,
      "distingu": 1915,
      "provid": 1916,
      "materiam": 1917,
      "habetur": 1918,
      "tota": 1919,
      "##ip": 1920,
      "##gress": 1921,
      "##ica": 1922,
      "##abili": 1923,
      "test": 1924,
      "##iorum": 1925,
      "##uet": 1926,
      "reman": 1927,
      "conting": 1928,
      "susc": 1929,
      "##elis": 1930,
      "multo": 1931,
      "plures": 1932,
      "sacerd": 1933,
      "##itis": 1934,
      "##si": 1935,
      "alios": 1936,
      "invicem": 1937,
      "subj": 1938,
      "mulier": 1939,
      "peric": 1940,
      "signum": 1941,
      "##ositionem": 1942,
      "gloriam": 1943,
      "no": 1944,
      "convenit": 1945,
      "##apti": 1946,
      "redd": 1947,
      "##alitas": 1948,
      "##ittit": 1949,
      "Eth": 1950,
      "##eper": 1951,
      "prout": 1952,
      "significat": 1953,
      "##estin": 1954,
      "##uram": 1955,
      "Quid": 1956,
      "##aretur": 1957,
      "mea": 1958,
      "trib": 1959,
      "extra": 1960,
      "##atores": 1961,
      "intr": 1962,
      "regnum": 1963,
      "##eles": 1964,
      "voluntate": 1965,
      "put": 1966,
      "aliquando": 1967,
      "vera": 1968,
      "Gregorius": 1969,
      "lat": 1970,
      "cast": 1971,
      "th": 1972,
      "##ublic": 1973,
      "##anda": 1974,
      "dominum": 1975,
      "humanae": 1976,
      "##ertur": 1977,
      "propor": 1978,
      "seipsum": 1979,
      "aqua": 1980,
      "la": 1981,
      "agit": 1982,
      "patri": 1983,
      "succ": 1984,
      "##onym": 1985,
      "tent": 1986,
      "vin": 1987,
      "coll": 1988,
      "util": 1989,
      "##ix": 1990,
      "Ethic": 1991,
      "homini": 1992,
      "Psalm": 1993,
      "##yn": 1994,
      "ph": 1995,
      "infra": 1996,
      "infinitum": 1997,
      "##etis": 1998,
      "ben": 1999,
      "satis": 2000,
      "subd": 2001,
      "offic": 2002,
      "patrem": 2003,
      "loquitur": 2004,
      "hunc": 2005,
      "aliam": 2006,
      "divinam": 2007,
      "##abitur": 2008,
      "##utus": 2009,
      "imperf": 2010,
      "caritas": 2011,
      "##ates": 2012,
      "trad": 2013,
      "sapientia": 2014,
      "##yr": 2015,
      "Lectio": 2016,
      "saec": 2017,
      "##ectione": 2018,
      "partem": 2019,
      "substantiae": 2020,
      "memor": 2021,
      "aliquem": 2022,
      "nol": 2023,
      "Haec": 2024,
      "potentiae": 2025,
      "##endere": 2026,
      "Omn": 2027,
      "verbo": 2028,
      "toll": 2029,
      "dubit": 2030,
      "dies": 2031,
      "Hieronym": 2032,
      "absque": 2033,
      "stud": 2034,
      "##ct": 2035,
      "den": 2036,
      "viti": 2037,
      "conserv": 2038,
      "lon": 2039,
      "venit": 2040,
      "effectum": 2041,
      "##ress": 2042,
      "communic": 2043,
      "aper": 2044,
      "##iat": 2045,
      "lex": 2046,
      "##erint": 2047,
      "##unti": 2048,
      "tanto": 2049,
      "omnem": 2050,
      "pun": 2051,
      "eccles": 2052,
      "##era": 2053,
      "##antibus": 2054,
      "parv": 2055,
      "##epit": 2056,
      "##enus": 2057,
      "##qui": 2058,
      "fide": 2059,
      "Luc": 2060,
      "alb": 2061,
      "simplic": 2062,
      "matrim": 2063,
      "inveni": 2064,
      "firm": 2065,
      "Prov": 2066,
      "##endam": 2067,
      "legem": 2068,
      "##tas": 2069,
      "##aptiz": 2070,
      "##aph": 2071,
      "##anus": 2072,
      "##osita": 2073,
      "appreh": 2074,
      "personae": 2075,
      "##onitur": 2076,
      "Ap": 2077,
      "##iri": 2078,
      "praed": 2079,
      "12": 2080,
      "##ile": 2081,
      "Angelus": 2082,
      "fer": 2083,
      "divinis": 2084,
      "forte": 2085,
      "process": 2086,
      "constitu": 2087,
      "##stru": 2088,
      "diss": 2089,
      "sent": 2090,
      "import": 2091,
      "mand": 2092,
      "inconveni": 2093,
      "contempl": 2094,
      "tua": 2095,
      "motu": 2096,
      "produc": 2097,
      "terrae": 2098,
      "##itam": 2099,
      "prior": 2100,
      "mirac": 2101,
      "add": 2102,
      "inclin": 2103,
      "intelligitur": 2104,
      "intelligere": 2105,
      "merit": 2106,
      "gloria": 2107,
      "perp": 2108,
      "Post": 2109,
      "dicatur": 2110,
      "reduc": 2111,
      "creatura": 2112,
      "##estiunc": 2113,
      "baptiz": 2114,
      "habens": 2115,
      "##hem": 2116,
      "intelligi": 2117,
      "VI": 2118,
      "cust": 2119,
      "Inf": 2120,
      "met": 2121,
      "vul": 2122,
      "##let": 2123,
      "veritas": 2124,
      "fiat": 2125,
      "unam": 2126,
      "lege": 2127,
      "materiae": 2128,
      "operatio": 2129,
      "aliorum": 2130,
      "av": 2131,
      "##inam": 2132,
      "regis": 2133,
      "##con": 2134,
      "multis": 2135,
      "ele": 2136,
      "##anum": 2137,
      "statim": 2138,
      "lap": 2139,
      "ang": 2140,
      "Cons": 2141,
      "praep": 2142,
      "adv": 2143,
      "Bo": 2144,
      "incip": 2145,
      "contrarium": 2146,
      "causae": 2147,
      "bonis": 2148,
      "##ilis": 2149,
      "consec": 2150,
      "diviti": 2151,
      "amor": 2152,
      "##ulc": 2153,
      "Simil": 2154,
      "quanto": 2155,
      "arg": 2156,
      "potentiam": 2157,
      "apparet": 2158,
      "##rist": 2159,
      "##equitur": 2160,
      "cognitio": 2161,
      "Lib": 2162,
      "##ectionis": 2163,
      "praeced": 2164,
      "creaturae": 2165,
      "##umus": 2166,
      "fuerunt": 2167,
      "tamquam": 2168,
      "numero": 2169,
      "diffic": 2170,
      "tant": 2171,
      "perfectionem": 2172,
      "Quar": 2173,
      "turb": 2174,
      "suos": 2175,
      "##ilium": 2176,
      "quibusdam": 2177,
      "Quaestiunc": 2178,
      "Quaestiuncula": 2179,
      "illam": 2180,
      "ped": 2181,
      "meum": 2182,
      "quoddam": 2183,
      "Al": 2184,
      "##antem": 2185,
      "arm": 2186,
      "plac": 2187,
      "temporis": 2188,
      "aliqui": 2189,
      "##ingu": 2190,
      "inim": 2191,
      "caelum": 2192,
      "lux": 2193,
      "special": 2194,
      "Gen": 2195,
      "duplex": 2196,
      "iste": 2197,
      "Caput": 2198,
      "##utum": 2199,
      "cel": 2200,
      "tum": 2201,
      "agens": 2202,
      "operatur": 2203,
      "##itudo": 2204,
      "consequens": 2205,
      "char": 2206,
      "quoque": 2207,
      "ordo": 2208,
      "scrip": 2209,
      "##enditur": 2210,
      "scientiae": 2211,
      "illumin": 2212,
      "ecce": 2213,
      "substantiam": 2214,
      "Ma": 2215,
      "##alitatem": 2216,
      "##icus": 2217,
      "alias": 2218,
      "custod": 2219,
      "alius": 2220,
      "amb": 2221,
      "##titiam": 2222,
      "amp": 2223,
      "verbis": 2224,
      "design": 2225,
      "alicui": 2226,
      "por": 2227,
      "fur": 2228,
      "##rump": 2229,
      "magna": 2230,
      "essent": 2231,
      "Trin": 2232,
      "seu": 2233,
      "modus": 2234,
      "optim": 2235,
      "confirm": 2236,
      "necessarium": 2237,
      "speciei": 2238,
      "cognoscit": 2239,
      "equ": 2240,
      "hujusmodi": 2241,
      "propositum": 2242,
      "aux": 2243,
      "nunquam": 2244,
      "##ane": 2245,
      "scientiam": 2246,
      "##ota": 2247,
      "##uxta": 2248,
      "necessaria": 2249,
      "##erem": 2250,
      "sanctum": 2251,
      "##olus": 2252,
      "##ivit": 2253,
      "transm": 2254,
      "fiunt": 2255,
      "Quae": 2256,
      "observ": 2257,
      "Secundum": 2258,
      "Pl": 2259,
      "probat": 2260,
      "13": 2261,
      "potenti": 2262,
      "consum": 2263,
      "14": 2264,
      "##porum": 2265,
      "##dis": 2266,
      "ext": 2267,
      "quic": 2268,
      "postea": 2269,
      "totius": 2270,
      "det": 2271,
      "melius": 2272,
      "##terius": 2273,
      "subiectum": 2274,
      "movet": 2275,
      "sustin": 2276,
      "animal": 2277,
      "alterum": 2278,
      "dicimus": 2279,
      "##ha": 2280,
      "factus": 2281,
      "compreh": 2282,
      "multiplic": 2283,
      "fortitud": 2284,
      "Hieronymus": 2285,
      "fine": 2286,
      "nim": 2287,
      "sensitiv": 2288,
      "##ereb": 2289,
      "ded": 2290,
      "##icum": 2291,
      "habitum": 2292,
      "miss": 2293,
      "##ie": 2294,
      "dur": 2295,
      "##uerit": 2296,
      "mortale": 2297,
      "##itae": 2298,
      "tri": 2299,
      "sensu": 2300,
      "carnis": 2301,
      "dividitur": 2302,
      "soc": 2303,
      "##abatur": 2304,
      "eas": 2305,
      "incor": 2306,
      "quodammodo": 2307,
      "tac": 2308,
      "lumen": 2309,
      "15": 2310,
      "##ana": 2311,
      "dedit": 2312,
      "##ario": 2313,
      "caelo": 2314,
      "Dion": 2315,
      "##ebantur": 2316,
      "##rag": 2317,
      "##tionibus": 2318,
      "amici": 2319,
      "##ites": 2320,
      "qualiter": 2321,
      "iudicium": 2322,
      "Similiter": 2323,
      "congreg": 2324,
      "utrumque": 2325,
      "Dionys": 2326,
      "potestatem": 2327,
      "concep": 2328,
      "##antiam": 2329,
      ".:": 2330,
      "dev": 2331,
      "mundo": 2332,
      "tuum": 2333,
      "quaestionem": 2334,
      "pet": 2335,
      "que": 2336,
      "##uf": 2337,
      "origin": 2338,
      "nem": 2339,
      "pal": 2340,
      "##arch": 2341,
      "multum": 2342,
      "videntur": 2343,
      "caeli": 2344,
      "##ordi": 2345,
      "##gen": 2346,
      "falsum": 2347,
      "sancto": 2348,
      "determinat": 2349,
      "long": 2350,
      "virtutum": 2351,
      "corrump": 2352,
      "anti": 2353,
      "VIII": 2354,
      "rationes": 2355,
      "confess": 2356,
      "Mo": 2357,
      "excell": 2358,
      "vinc": 2359,
      "lev": 2360,
      "senti": 2361,
      "humil": 2362,
      "conj": 2363,
      "individ": 2364,
      "dat": 2365,
      "testim": 2366,
      "##utio": 2367,
      "##icit": 2368,
      "##stat": 2369,
      "dico": 2370,
      "dicta": 2371,
      "felic": 2372,
      "medio": 2373,
      "benefic": 2374,
      "alien": 2375,
      "corde": 2376,
      "Alio": 2377,
      "praemiss": 2378,
      "praedicta": 2379,
      "figur": 2380,
      "Scriptur": 2381,
      "##ute": 2382,
      "nobil": 2383,
      "##ocr": 2384,
      "perc": 2385,
      "caritatis": 2386,
      "viol": 2387,
      "##uetud": 2388,
      "##eps": 2389,
      "adi": 2390,
      "imperator": 2391,
      "occid": 2392,
      "posse": 2393,
      "via": 2394,
      "Pet": 2395,
      "venia": 2396,
      "praecipue": 2397,
      "vere": 2398,
      "##entorum": 2399,
      "duobus": 2400,
      "##rog": 2401,
      "##tav": 2402,
      "ipsis": 2403,
      "##lis": 2404,
      "audi": 2405,
      "tribus": 2406,
      "nullum": 2407,
      "passio": 2408,
      "##eruntur": 2409,
      "##aus": 2410,
      "##venire": 2411,
      "Uno": 2412,
      "accidit": 2413,
      "sen": 2414,
      "##abo": 2415,
      "diversa": 2416,
      "alium": 2417,
      "cib": 2418,
      "revel": 2419,
      "veritatis": 2420,
      "pauc": 2421,
      "##ordin": 2422,
      "##osito": 2423,
      "cali": 2424,
      "sumus": 2425,
      "##inae": 2426,
      "##ionibus": 2427,
      ".\"": 2428,
      "##ulit": 2429,
      "conclus": 2430,
      "##ax": 2431,
      "propriet": 2432,
      "XXX": 2433,
      "pecun": 2434,
      "vig": 2435,
      "jam": 2436,
      "sola": 2437,
      "peccatorum": 2438,
      "infid": 2439,
      "generis": 2440,
      "sensibili": 2441,
      "spiritualis": 2442,
      "VII": 2443,
      "##obili": 2444,
      "fuisse": 2445,
      "##ox": 2446,
      "exhib": 2447,
      "##elium": 2448,
      "##bidem": 2449,
      "bell": 2450,
      "sper": 2451,
      "soli": 2452,
      "spon": 2453,
      "##itudine": 2454,
      "elig": 2455,
      "pur": 2456,
      "##arent": 2457,
      "appetitus": 2458,
      "contraria": 2459,
      "datur": 2460,
      "veter": 2461,
      "manus": 2462,
      "carnem": 2463,
      "##oni": 2464,
      "##lu": 2465,
      "##ationi": 2466,
      "possibile": 2467,
      "habuit": 2468,
      "considerandum": 2469,
      "perfectio": 2470,
      "vac": 2471,
      "perpet": 2472,
      "##utis": 2473,
      "dictis": 2474,
      "##rop": 2475,
      "lingu": 2476,
      "##ulorum": 2477,
      "praedestin": 2478,
      "illos": 2479,
      "operationem": 2480,
      "sanctorum": 2481,
      "poenam": 2482,
      "##ber": 2483,
      "relinqu": 2484,
      "locus": 2485,
      "nut": 2486,
      "caput": 2487,
      "gloriae": 2488,
      "16": 2489,
      "interior": 2490,
      "affirm": 2491,
      "iustitiae": 2492,
      "iniqu": 2493,
      "Par": 2494,
      "differentia": 2495,
      "##entus": 2496,
      "solus": 2497,
      "naturali": 2498,
      "##ice": 2499,
      "passiones": 2500,
      "attribu": 2501,
      "praecepta": 2502,
      "##arn": 2503,
      "abst": 2504,
      "##lium": 2505,
      "tribul": 2506,
      "##liqu": 2507,
      "potuit": 2508,
      "sensum": 2509,
      "cop": 2510,
      "##tura": 2511,
      "sor": 2512,
      "obedi": 2513,
      "iur": 2514,
      "##pir": 2515,
      "can": 2516,
      "##atos": 2517,
      "nostri": 2518,
      "##erentur": 2519,
      "Iesus": 2520,
      "##esse": 2521,
      "##otum": 2522,
      "imagin": 2523,
      "corporum": 2524,
      "tali": 2525,
      "##ago": 2526,
      ".;": 2527,
      "##ola": 2528,
      "itaque": 2529,
      "veni": 2530,
      "Angelis": 2531,
      "cess": 2532,
      "debent": 2533,
      "##icae": 2534,
      "Arist": 2535,
      "mundum": 2536,
      "mentis": 2537,
      "immedi": 2538,
      "defic": 2539,
      "obj": 2540,
      "faciunt": 2541,
      "honor": 2542,
      "primam": 2543,
      "male": 2544,
      "remov": 2545,
      "salutem": 2546,
      "iustitia": 2547,
      "Aristot": 2548,
      "##modum": 2549,
      "commune": 2550,
      "##ote": 2551,
      "constit": 2552,
      "peccatis": 2553,
      "mortis": 2554,
      "##ectam": 2555,
      "interp": 2556,
      "Moys": 2557,
      "sur": 2558,
      "erunt": 2559,
      "instrum": 2560,
      "diversis": 2561,
      "##erb": 2562,
      "##escit": 2563,
      "civitatis": 2564,
      "##lec": 2565,
      "viri": 2566,
      "potestate": 2567,
      "Abra": 2568,
      "##aur": 2569,
      "##antas": 2570,
      "Petr": 2571,
      "##emn": 2572,
      "propinqu": 2573,
      "consilium": 2574,
      "##omm": 2575,
      "totaliter": 2576,
      "sacramenti": 2577,
      "testam": 2578,
      "obiectum": 2579,
      "refer": 2580,
      "ordinatur": 2581,
      "intelligit": 2582,
      "potius": 2583,
      "accipere": 2584,
      "##..": 2585,
      "ministr": 2586,
      "generatio": 2587,
      "cup": 2588,
      "quintum": 2589,
      "##cis": 2590,
      "19": 2591,
      "extrem": 2592,
      "##ulg": 2593,
      "Pro": 2594,
      "aeterna": 2595,
      "quaeritur": 2596,
      "##ria": 2597,
      "regni": 2598,
      "consci": 2599,
      "competit": 2600,
      "Abrah": 2601,
      "simile": 2602,
      "##sio": 2603,
      "panis": 2604,
      "18": 2605,
      "rever": 2606,
      "##eritis": 2607,
      "promiss": 2608,
      "domus": 2609,
      "perfectum": 2610,
      "converso": 2611,
      "intelligendum": 2612,
      "Man": 2613,
      "corpori": 2614,
      "auf": 2615,
      "caritate": 2616,
      "humanam": 2617,
      "quamdam": 2618,
      "ra": 2619,
      "ret": 2620,
      "##gredi": 2621,
      "##ositione": 2622,
      "dispon": 2623,
      "meli": 2624,
      "praepar": 2625,
      "##ung": 2626,
      "##arc": 2627,
      "statum": 2628,
      "specia": 2629,
      "requiritur": 2630,
      "solv": 2631,
      "perfecta": 2632,
      "operibus": 2633,
      "suscip": 2634,
      "malo": 2635,
      "nav": 2636,
      "assump": 2637,
      "##na": 2638,
      "subsist": 2639,
      "##stanti": 2640,
      "sanctific": 2641,
      "##XX": 2642,
      "civitatem": 2643,
      "prael": 2644,
      "sacri": 2645,
      "bonorum": 2646,
      "##inta": 2647,
      "##isit": 2648,
      "Israe": 2649,
      "conver": 2650,
      "fort": 2651,
      "##ibilem": 2652,
      "existens": 2653,
      "transmut": 2654,
      "etsi": 2655,
      "manduc": 2656,
      "activ": 2657,
      "donum": 2658,
      "opinionem": 2659,
      "Utrum": 2660,
      "Prima": 2661,
      "regem": 2662,
      "horum": 2663,
      "lac": 2664,
      "pugn": 2665,
      "##ones": 2666,
      "pluribus": 2667,
      "Dicendum": 2668,
      "##lim": 2669,
      "##ibiles": 2670,
      "inconveniens": 2671,
      "##tioni": 2672,
      "mente": 2673,
      "ed": 2674,
      "##eres": 2675,
      "##inus": 2676,
      "##ano": 2677,
      "specul": 2678,
      "sapientiae": 2679,
      "The": 2680,
      "##yst": 2681,
      "subiecto": 2682,
      "##ordia": 2683,
      "17": 2684,
      "habit": 2685,
      "fre": 2686,
      "##uic": 2687,
      "actio": 2688,
      "toto": 2689,
      "org": 2690,
      "##imur": 2691,
      "manu": 2692,
      "Fr": 2693,
      "caro": 2694,
      "defectus": 2695,
      "intendit": 2696,
      "##struc": 2697,
      "Sanc": 2698,
      "occas": 2699,
      "immut": 2700,
      "domine": 2701,
      "##osa": 2702,
      "videt": 2703,
      "##titiae": 2704,
      "manet": 2705,
      "CA": 2706,
      "irr": 2707,
      "os": 2708,
      "arbitr": 2709,
      "partibus": 2710,
      "exemplum": 2711,
      "consecr": 2712,
      "corporibus": 2713,
      "passionem": 2714,
      "ostenditur": 2715,
      "Gra": 2716,
      "line": 2717,
      "infinita": 2718,
      "morte": 2719,
      "posuit": 2720,
      "Israel": 2721,
      "hyp": 2722,
      "##ime": 2723,
      "manifestat": 2724,
      "populus": 2725,
      "minister": 2726,
      "cunc": 2727,
      "peccat": 2728,
      "mar": 2729,
      "impl": 2730,
      "excludit": 2731,
      "misericordi": 2732,
      "meus": 2733,
      "mend": 2734,
      "##tior": 2735,
      "propriam": 2736,
      "##abiliter": 2737,
      "inius": 2738,
      "##edere": 2739,
      "congr": 2740,
      "clar": 2741,
      "similitudo": 2742,
      "poenae": 2743,
      "Gal": 2744,
      "mori": 2745,
      "##ationum": 2746,
      "numerus": 2747,
      "##anorum": 2748,
      "amplius": 2749,
      "##ric": 2750,
      "##amur": 2751,
      "spes": 2752,
      "caritatem": 2753,
      "commend": 2754,
      "populo": 2755,
      "##erius": 2756,
      "dare": 2757,
      "continu": 2758,
      "suffici": 2759,
      "pulch": 2760,
      "##edific": 2761,
      "phantas": 2762,
      "merc": 2763,
      "XII": 2764,
      "amore": 2765,
      "pres": 2766,
      "abund": 2767,
      "remiss": 2768,
      "##hris": 2769,
      "populi": 2770,
      "##libus": 2771,
      "Joan": 2772,
      "##idum": 2773,
      "poterat": 2774,
      "##issent": 2775,
      "##sec": 2776,
      "##ittitur": 2777,
      "##inum": 2778,
      "##onum": 2779,
      "##atibus": 2780,
      "earum": 2781,
      "##utionem": 2782,
      "dixerunt": 2783,
      "ostensum": 2784,
      "habitu": 2785,
      "consol": 2786,
      "sufficit": 2787,
      "septim": 2788,
      "perfic": 2789,
      "sacramento": 2790,
      "memb": 2791,
      "##psit": 2792,
      "tertia": 2793,
      "frig": 2794,
      "##ath": 2795,
      "sollic": 2796,
      "stell": 2797,
      "##ines": 2798,
      "ira": 2799,
      "veritate": 2800,
      "aedific": 2801,
      "culpa": 2802,
      "menti": 2803,
      "nub": 2804,
      "##esci": 2805,
      "prec": 2806,
      "Quarto": 2807,
      "Dionysius": 2808,
      "primi": 2809,
      "temper": 2810,
      "significatur": 2811,
      "##itatibus": 2812,
      "estis": 2813,
      "##rorum": 2814,
      "frequ": 2815,
      "qual": 2816,
      "importat": 2817,
      "##anti": 2818,
      "viam": 2819,
      "aestim": 2820,
      "accipit": 2821,
      "urbem": 2822,
      "quidquid": 2823,
      "totam": 2824,
      "intellec": 2825,
      "diligit": 2826,
      "##rep": 2827,
      "labor": 2828,
      "Pa": 2829,
      "##ech": 2830,
      "cad": 2831,
      "##abilia": 2832,
      "accipitur": 2833,
      "arbitri": 2834,
      "poli": 2835,
      "cognoscere": 2836,
      "Pot": 2837,
      "scand": 2838,
      "va": 2839,
      "exper": 2840,
      "clam": 2841,
      "ultimum": 2842,
      "principaliter": 2843,
      "septem": 2844,
      "##sit": 2845,
      "##anim": 2846,
      "plura": 2847,
      "bonus": 2848,
      "sacramenta": 2849,
      "recipi": 2850,
      "benedic": 2851,
      "myst": 2852,
      "##och": 2853,
      "culpae": 2854,
      "Iob": 2855,
      "##ittere": 2856,
      "uni": 2857,
      "contradic": 2858,
      "##idi": 2859,
      "oblig": 2860,
      "sump": 2861,
      "cordis": 2862,
      "lign": 2863,
      "scrib": 2864,
      "##rah": 2865,
      "filios": 2866,
      "nostris": 2867,
      "expect": 2868,
      "Ubi": 2869,
      "noster": 2870,
      "mei": 2871,
      "adul": 2872,
      "voluit": 2873,
      "possumus": 2874,
      "meam": 2875,
      "success": 2876,
      "Ips": 2877,
      "##vi": 2878,
      "suorum": 2879,
      "hi": 2880,
      "naturalem": 2881,
      "sacrific": 2882,
      "philosophum": 2883,
      "augm": 2884,
      "##pic": 2885,
      "sumitur": 2886,
      "trah": 2887,
      "exclud": 2888,
      "alteri": 2889,
      "superb": 2890,
      "principes": 2891,
      "Scriptura": 2892,
      "nemo": 2893,
      "Tur": 2894,
      "IX": 2895,
      "templ": 2896,
      "incarn": 2897,
      "moveri": 2898,
      "testimonium": 2899,
      "occul": 2900,
      "civitate": 2901,
      "##avi": 2902,
      "agere": 2903,
      "CAP": 2904,
      "dispens": 2905,
      "acquir": 2906,
      "##arii": 2907,
      "sacerdo": 2908,
      "verbi": 2909,
      "Ideo": 2910,
      "mur": 2911,
      "praef": 2912,
      "public": 2913,
      "##arr": 2914,
      "nondum": 2915,
      "diem": 2916,
      "videre": 2917,
      "artific": 2918,
      "##erusalem": 2919,
      "velle": 2920,
      "20": 2921,
      "Reg": 2922,
      "##etus": 2923,
      "antequam": 2924,
      "inordin": 2925,
      "intentionem": 2926,
      "Im": 2927,
      "timor": 2928,
      "##ende": 2929,
      "##ular": 2930,
      "arc": 2931,
      "##ubern": 2932,
      "recep": 2933,
      "interrog": 2934,
      "reput": 2935,
      "doctrina": 2936,
      "sa": 2937,
      "quinque": 2938,
      "conveniens": 2939,
      "sciendum": 2940,
      "##istis": 2941,
      "illorum": 2942,
      "##ON": 2943,
      "quarum": 2944,
      "Ne": 2945,
      "##undi": 2946,
      "apostoli": 2947,
      "mensur": 2948,
      "##ecumque": 2949,
      "ult": 2950,
      "##ER": 2951,
      "differunt": 2952,
      "port": 2953,
      "perfecte": 2954,
      "nostrum": 2955,
      "Bed": 2956,
      "dex": 2957,
      "Aqu": 2958,
      "illic": 2959,
      "praeceptum": 2960,
      "coniunc": 2961,
      "Sup": 2962,
      "malis": 2963,
      "nesci": 2964,
      "aquae": 2965,
      "recte": 2966,
      "##erre": 2967,
      "reliqu": 2968,
      "vindic": 2969,
      "ori": 2970,
      "##estio": 2971,
      "##avid": 2972,
      "amoris": 2973,
      "nego": 2974,
      "suscep": 2975,
      "genti": 2976,
      "quadam": 2977,
      "##atoris": 2978,
      "scire": 2979,
      "der": 2980,
      "##TI": 2981,
      "##antium": 2982,
      "postquam": 2983,
      "##ysic": 2984,
      "concludit": 2985,
      "Pat": 2986,
      "gubern": 2987,
      "subtra": 2988,
      "##ebunt": 2989,
      "Tim": 2990,
      "##egr": 2991,
      "nobili": 2992,
      "##entius": 2993,
      "passionis": 2994,
      "##ogn": 2995,
      "##eunt": 2996,
      "opere": 2997,
      "eiusdem": 2998,
      "##ulam": 2999,
      "servi": 3000,
      "delectatio": 3001,
      "consuetud": 3002,
      "iustitiam": 3003,
      "##lo": 3004,
      "Eccli": 3005,
      "excus": 3006,
      "cognitione": 3007,
      "matrimonium": 3008,
      "ambul": 3009,
      "##averit": 3010,
      "status": 3011,
      "##iret": 3012,
      "primus": 3013,
      "diu": 3014,
      "forn": 3015,
      "Infern": 3016,
      "resurg": 3017,
      "usum": 3018,
      "David": 3019,
      "dulc": 3020,
      "signa": 3021,
      "##elicet": 3022,
      "mors": 3023,
      "causis": 3024,
      "defectum": 3025,
      "Sci": 3026,
      "##tica": 3027,
      "##ena": 3028,
      "solis": 3029,
      "approp": 3030,
      "cruc": 3031,
      "nostrae": 3032,
      "rationalis": 3033,
      "Amb": 3034,
      "incorrup": 3035,
      "##una": 3036,
      "victor": 3037,
      "operationes": 3038,
      "Prop": 3039,
      "##actus": 3040,
      "Dicitur": 3041,
      "suas": 3042,
      "innoc": 3043,
      "##omp": 3044,
      "animalia": 3045,
      "indign": 3046,
      "##oem": 3047,
      "##omn": 3048,
      "Ul": 3049,
      "##quod": 3050,
      "21": 3051,
      "pre": 3052,
      "accus": 3053,
      "Dam": 3054,
      "essenti": 3055,
      "##essit": 3056,
      "differt": 3057,
      "virtutibus": 3058,
      "capit": 3059,
      "corporalis": 3060,
      "debemus": 3061,
      "peti": 3062,
      "rap": 3063,
      "##red": 3064,
      "##orsum": 3065,
      "opinio": 3066,
      "Supra": 3067,
      "ore": 3068,
      "generationem": 3069,
      "dixerat": 3070,
      "##ensis": 3071,
      "amorem": 3072,
      "movens": 3073,
      "opponitur": 3074,
      "##abunt": 3075,
      "##sa": 3076,
      "Beda": 3077,
      "consilio": 3078,
      "usus": 3079,
      "ipsorum": 3080,
      "irasc": 3081,
      "ultra": 3082,
      "Postquam": 3083,
      "Ita": 3084,
      "inimic": 3085,
      "necessitatem": 3086,
      "##atas": 3087,
      "conform": 3088,
      "inducit": 3089,
      "duae": 3090,
      "Quidam": 3091,
      "fun": 3092,
      "appet": 3093,
      "incipit": 3094,
      "##abantur": 3095,
      "istis": 3096,
      "bl": 3097,
      "aliae": 3098,
      "stat": 3099,
      "gaudium": 3100,
      "immediate": 3101,
      "nequ": 3102,
      "coram": 3103,
      "agentis": 3104,
      "vari": 3105,
      "decimum": 3106,
      "ves": 3107,
      "inform": 3108,
      "##quodque": 3109,
      "hor": 3110,
      "tui": 3111,
      "##atic": 3112,
      "Quantum": 3113,
      "meo": 3114,
      "videlicet": 3115,
      "##lar": 3116,
      "defici": 3117,
      "generationis": 3118,
      "fuerat": 3119,
      "valde": 3120,
      "Sal": 3121,
      "poterit": 3122,
      "assignat": 3123,
      "utro": 3124,
      "quaecumque": 3125,
      "fructus": 3126,
      "Anti": 3127,
      "communis": 3128,
      "mund": 3129,
      "epist": 3130,
      "intentio": 3131,
      "bib": 3132,
      "transf": 3133,
      "tuam": 3134,
      "communi": 3135,
      "diebus": 3136,
      "Eph": 3137,
      "imit": 3138,
      "lae": 3139,
      "Sequitur": 3140,
      "ador": 3141,
      "haere": 3142,
      "interpret": 3143,
      "Met": 3144,
      "descend": 3145,
      "dimin": 3146,
      "quad": 3147,
      "igne": 3148,
      "aeternum": 3149,
      "intra": 3150,
      "##odec": 3151,
      "proponit": 3152,
      "figura": 3153,
      "causas": 3154,
      "libert": 3155,
      "aeternam": 3156,
      "miser": 3157,
      "fratres": 3158,
      "debetur": 3159,
      "mare": 3160,
      "invid": 3161,
      "possint": 3162,
      "instit": 3163,
      "magnum": 3164,
      "At": 3165,
      "fuisset": 3166,
      "mol": 3167,
      "##ensus": 3168,
      "nota": 3169,
      "ibidem": 3170,
      "##tivum": 3171,
      "comes": 3172,
      "divinum": 3173,
      "repugn": 3174,
      "XXV": 3175,
      "indivis": 3176,
      "potestas": 3177,
      "Secunda": 3178,
      "iustific": 3179,
      "medic": 3180,
      "##mus": 3181,
      "faciat": 3182,
      "##olo": 3183,
      "vestra": 3184,
      "convert": 3185,
      "##ungit": 3186,
      "habeant": 3187,
      "nomina": 3188,
      "satisfac": 3189,
      "##lem": 3190,
      "turp": 3191,
      "corruptib": 3192,
      "domum": 3193,
      "quicumque": 3194,
      "##olog": 3195,
      "Diabolus": 3196,
      "##emos": 3197,
      "indic": 3198,
      "prot": 3199,
      "communiter": 3200,
      "actibus": 3201,
      "Petrus": 3202,
      "Judae": 3203,
      "opor": 3204,
      "isti": 3205,
      "ponere": 3206,
      "tristitia": 3207,
      "possess": 3208,
      "##ode": 3209,
      "impedim": 3210,
      "Sap": 3211,
      "##olis": 3212,
      "Ca": 3213,
      "nul": 3214,
      "syl": 3215,
      "##umb": 3216,
      "purg": 3217,
      "talem": 3218,
      "exercitus": 3219,
      "resist": 3220,
      "honest": 3221,
      "prophe": 3222,
      "proportion": 3223,
      "Graec": 3224,
      "adj": 3225,
      "modis": 3226,
      "misit": 3227,
      "beatitudo": 3228,
      "tales": 3229,
      "##cili": 3230,
      "Quam": 3231,
      "legitur": 3232,
      "22": 3233,
      "Ab": 3234,
      "mundus": 3235,
      "diversas": 3236,
      "inquir": 3237,
      "populum": 3238,
      "##angu": 3239,
      "simplex": 3240,
      "personam": 3241,
      "##ocumque": 3242,
      "##atorem": 3243,
      "mitt": 3244,
      "consequitur": 3245,
      "officium": 3246,
      "lapid": 3247,
      "Int": 3248,
      "Ecclesiam": 3249,
      "fornic": 3250,
      "tale": 3251,
      "Angelorum": 3252,
      "cognov": 3253,
      "album": 3254,
      "Manifest": 3255,
      "deser": 3256,
      "describ": 3257,
      "habebat": 3258,
      "debeat": 3259,
      "Boeti": 3260,
      "appell": 3261,
      "littera": 3262,
      "obsid": 3263,
      "futura": 3264,
      "##la": 3265,
      "debitum": 3266,
      "fund": 3267,
      "##ne": 3268,
      "##inth": 3269,
      "Antic": 3270,
      "fon": 3271,
      "lar": 3272,
      "mili": 3273,
      "cog": 3274,
      "dona": 3275,
      "tab": 3276,
      "prohibet": 3277,
      "aet": 3278,
      "prudentia": 3279,
      "##abus": 3280,
      "dux": 3281,
      "regno": 3282,
      "Ambros": 3283,
      "perman": 3284,
      "meritum": 3285,
      "percip": 3286,
      "depend": 3287,
      "subditur": 3288,
      "Damasc": 3289,
      "Antichris": 3290,
      "nasc": 3291,
      "Augustinum": 3292,
      "ser": 3293,
      "##ciam": 3294,
      "vivere": 3295,
      "sapientiam": 3296,
      "pan": 3297,
      "separata": 3298,
      "falsa": 3299,
      "##eros": 3300,
      "institu": 3301,
      "passione": 3302,
      "##eph": 3303,
      "consumm": 3304,
      "malitia": 3305,
      "Quaestio": 3306,
      "casu": 3307,
      "somn": 3308,
      "bonitas": 3309,
      "numerum": 3310,
      "habentes": 3311,
      "culpam": 3312,
      "instru": 3313,
      "tuo": 3314,
      "quandam": 3315,
      "superbi": 3316,
      "##ma": 3317,
      "malorum": 3318,
      "##titudinem": 3319,
      "quantitatem": 3320,
      "##emosyn": 3321,
      "sacerdot": 3322,
      "antiqu": 3323,
      "mobil": 3324,
      "sae": 3325,
      "piet": 3326,
      "##olum": 3327,
      "##anter": 3328,
      "ard": 3329,
      "unumquodque": 3330,
      "poenitentiam": 3331,
      "Aeg": 3332,
      "huic": 3333,
      "specialiter": 3334,
      "Quando": 3335,
      "Ioan": 3336,
      "conveniunt": 3337,
      "desiderium": 3338,
      "23": 3339,
      "nostram": 3340,
      "##ceps": 3341,
      "##entias": 3342,
      "obl": 3343,
      "puni": 3344,
      "##aequ": 3345,
      "##asse": 3346,
      "absolute": 3347,
      "futurum": 3348,
      "##rius": 3349,
      "##acob": 3350,
      "abscon": 3351,
      "eleemosyn": 3352,
      "recipit": 3353,
      "secund": 3354,
      "creaturis": 3355,
      "son": 3356,
      "exponit": 3357,
      "proximum": 3358,
      "##andam": 3359,
      "vide": 3360,
      "##emur": 3361,
      "morta": 3362,
      "timore": 3363,
      "auctoritate": 3364,
      "mix": 3365,
      "Daemones": 3366,
      "haberet": 3367,
      "salutis": 3368,
      "membra": 3369,
      "Potest": 3370,
      "##oemium": 3371,
      "naturale": 3372,
      "perfectionis": 3373,
      "Socr": 3374,
      "elev": 3375,
      "unitatem": 3376,
      "Baptismum": 3377,
      "Div": 3378,
      "persec": 3379,
      "##ositis": 3380,
      "##urrit": 3381,
      "aliquibus": 3382,
      "princeps": 3383,
      "tanta": 3384,
      "##ren": 3385,
      "##asi": 3386,
      "matrimon": 3387,
      "praesenti": 3388,
      "Thom": 3389,
      "##ticum": 3390,
      "uxorem": 3391,
      "orb": 3392,
      "tenetur": 3393,
      "anno": 3394,
      "agn": 3395,
      "reper": 3396,
      "veniale": 3397,
      "##osum": 3398,
      "tanquam": 3399,
      "carne": 3400,
      "doctrinam": 3401,
      "##ribus": 3402,
      "ulterius": 3403,
      "##anae": 3404,
      "principiis": 3405,
      "ordinantur": 3406,
      "liberum": 3407,
      "civitas": 3408,
      "Metaph": 3409,
      "Ambrosius": 3410,
      "XIII": 3411,
      "stul": 3412,
      "gradus": 3413,
      "24": 3414,
      "intend": 3415,
      "Manifestum": 3416,
      "syn": 3417,
      "famili": 3418,
      "apprehens": 3419,
      "exh": 3420,
      "seipso": 3421,
      "poenitentia": 3422,
      "multitudo": 3423,
      "exis": 3424,
      "secundam": 3425,
      "superf": 3426,
      "perd": 3427,
      "quaelibet": 3428,
      "##ump": 3429,
      "##uri": 3430,
      "##abiles": 3431,
      "##US": 3432,
      "contrariet": 3433,
      "Aristoteles": 3434,
      "quolibet": 3435,
      "Aegyp": 3436,
      "judicium": 3437,
      "Tunc": 3438,
      "ordinis": 3439,
      "respondet": 3440,
      "differentiam": 3441,
      "accepit": 3442,
      "bre": 3443,
      "dirig": 3444,
      "Ioannem": 3445,
      "pacem": 3446,
      "##eperunt": 3447,
      "fo": 3448,
      "bonitatem": 3449,
      "animalibus": 3450,
      "obtin": 3451,
      "##emor": 3452,
      "gentes": 3453,
      "##ever": 3454,
      "##tiis": 3455,
      "##olv": 3456,
      "##endis": 3457,
      "personarum": 3458,
      "dispositio": 3459,
      "crim": 3460,
      "posuerunt": 3461,
      "##estig": 3462,
      "misericordia": 3463,
      "utroque": 3464,
      "##umentum": 3465,
      "Ez": 3466,
      "##issimum": 3467,
      "ve": 3468,
      "mans": 3469,
      "definitione": 3470,
      "##ered": 3471,
      "duodec": 3472,
      "Ioannes": 3473,
      "vidit": 3474,
      "consequenter": 3475,
      "formas": 3476,
      "##abuntur": 3477,
      "mensura": 3478,
      "aer": 3479,
      "lig": 3480,
      "maius": 3481,
      "Contra": 3482,
      "Prooemium": 3483,
      "##ustr": 3484,
      "domo": 3485,
      "tract": 3486,
      "dorm": 3487,
      "host": 3488,
      "##issima": 3489,
      "impedi": 3490,
      "XXI": 3491,
      "##icam": 3492,
      "trium": 3493,
      "##ard": 3494,
      "conn": 3495,
      "##oth": 3496,
      "retin": 3497,
      "admir": 3498,
      "elementa": 3499,
      "vitium": 3500,
      "hypost": 3501,
      "##rav": 3502,
      "##ionum": 3503,
      "praedictis": 3504,
      "Baptismus": 3505,
      "Oport": 3506,
      "##editur": 3507,
      "Job": 3508,
      "minor": 3509,
      "tangit": 3510,
      "operatione": 3511,
      "auxilium": 3512,
      "Bal": 3513,
      "##til": 3514,
      "orn": 3515,
      "essentiae": 3516,
      "patern": 3517,
      "docet": 3518,
      "assimil": 3519,
      "episcopus": 3520,
      "##UM": 3521,
      "##raque": 3522,
      "arch": 3523,
      "praedicatur": 3524,
      "data": 3525,
      "Corinth": 3526,
      "##ida": 3527,
      "quilibet": 3528,
      "Alia": 3529,
      "deli": 3530,
      "XIV": 3531,
      "##abilem": 3532,
      "manifeste": 3533,
      "talia": 3534,
      "praesens": 3535,
      "cruci": 3536,
      "abstin": 3537,
      "credere": 3538,
      "##iac": 3539,
      "confit": 3540,
      "##asti": 3541,
      "possent": 3542,
      "octav": 3543,
      "terminus": 3544,
      "ignem": 3545,
      "multitudinem": 3546,
      "virgin": 3547,
      "iuxta": 3548,
      "##endus": 3549,
      "spem": 3550,
      "duos": 3551,
      "necessitas": 3552,
      "Null": 3553,
      "Rob": 3554,
      "utitur": 3555,
      "Abraham": 3556,
      "dem": 3557,
      "conclud": 3558,
      "narr": 3559,
      "Iesu": 3560,
      "magnific": 3561,
      "##ative": 3562,
      "Dominus": 3563,
      "habemus": 3564,
      "universaliter": 3565,
      "Orig": 3566,
      "duplic": 3567,
      "generatione": 3568,
      "##erium": 3569,
      "exi": 3570,
      "declar": 3571,
      "Boetius": 3572,
      "##ectis": 3573,
      "cond": 3574,
      "##nus": 3575,
      "##arentur": 3576,
      "transl": 3577,
      "utraque": 3578,
      "veloc": 3579,
      "beatitudinem": 3580,
      "perven": 3581,
      "##enes": 3582,
      "##ecit": 3583,
      "attenditur": 3584,
      "distr": 3585,
      "existim": 3586,
      "media": 3587,
      "auxili": 3588,
      "##IS": 3589,
      "express": 3590,
      "Adam": 3591,
      "numquid": 3592,
      "vinum": 3593,
      "actionem": 3594,
      "similis": 3595,
      "accidentia": 3596,
      "##ariis": 3597,
      "mendaci": 3598,
      "incorruptib": 3599,
      "fem": 3600,
      "corporali": 3601,
      "perfici": 3602,
      "prosper": 3603,
      "##no": 3604,
      "past": 3605,
      "Plat": 3606,
      "Act": 3607,
      "sermo": 3608,
      "##iva": 3609,
      "iudicio": 3610,
      "Iudaeorum": 3611,
      "honorem": 3612,
      "Nota": 3613,
      "##queb": 3614,
      "naturalibus": 3615,
      "##itudinis": 3616,
      "humanum": 3617,
      "caelestis": 3618,
      "quali": 3619,
      "##iderunt": 3620,
      "exs": 3621,
      "En": 3622,
      "Antioch": 3623,
      "occup": 3624,
      "##usa": 3625,
      "peccare": 3626,
      "glad": 3627,
      "##amen": 3628,
      "multos": 3629,
      "Consequ": 3630,
      "scit": 3631,
      "donec": 3632,
      "resurrectionem": 3633,
      "##alitatis": 3634,
      "primae": 3635,
      "imago": 3636,
      "faciem": 3637,
      "teneb": 3638,
      "alicujus": 3639,
      "Evangeli": 3640,
      "contemp": 3641,
      "arbitrium": 3642,
      "punc": 3643,
      "exercitu": 3644,
      "abi": 3645,
      "ov": 3646,
      "divino": 3647,
      "Rober": 3648,
      "sacerdos": 3649,
      "om": 3650,
      "solvit": 3651,
      "##estis": 3652,
      "##osci": 3653,
      "vires": 3654,
      "operari": 3655,
      "exterius": 3656,
      "tang": 3657,
      "addit": 3658,
      "nativ": 3659,
      "corr": 3660,
      "consist": 3661,
      "nocte": 3662,
      "operis": 3663,
      "relatio": 3664,
      "discipulis": 3665,
      "natus": 3666,
      "##pe": 3667,
      "sextum": 3668,
      "##entiis": 3669,
      "peccator": 3670,
      "iustum": 3671,
      "vocatur": 3672,
      "Quin": 3673,
      "effici": 3674,
      "adversus": 3675,
      "singular": 3676,
      "sursum": 3677,
      "##ophyl": 3678,
      "##tici": 3679,
      "Mar": 3680,
      "##essum": 3681,
      "creaturam": 3682,
      "praemium": 3683,
      "##pici": 3684,
      "##tionum": 3685,
      "discipuli": 3686,
      "##ilius": 3687,
      "XL": 3688,
      "juxta": 3689,
      "exal": 3690,
      "inquit": 3691,
      "oratio": 3692,
      "##ativam": 3693,
      "persever": 3694,
      "diversitatem": 3695,
      "introd": 3696,
      "eg": 3697,
      "regi": 3698,
      "dignitatem": 3699,
      "Deut": 3700,
      "sanguinem": 3701,
      "##tivae": 3702,
      "cognoscitur": 3703,
      "visus": 3704,
      "aquam": 3705,
      "suff": 3706,
      "##raes": 3707,
      "25": 3708,
      "jur": 3709,
      "pap": 3710,
      "quiesc": 3711,
      "namque": 3712,
      "diligere": 3713,
      "comparationem": 3714,
      "definitio": 3715,
      "memoria": 3716,
      "aere": 3717,
      "##unci": 3718,
      "utilitatem": 3719,
      "amicitia": 3720,
      "sapiens": 3721,
      "facult": 3722,
      "possid": 3723,
      "Domini": 3724,
      "##yrann": 3725,
      "vehem": 3726,
      "beatus": 3727,
      "concupiscentia": 3728,
      "Consequenter": 3729,
      "Iud": 3730,
      "##uch": 3731,
      "facile": 3732,
      "indiget": 3733,
      "individu": 3734,
      "Oportet": 3735,
      "##ES": 3736,
      "viro": 3737,
      "considerare": 3738,
      "His": 3739,
      "agitur": 3740,
      "hypostas": 3741,
      "Hab": 3742,
      "facto": 3743,
      "fructum": 3744,
      "##uisse": 3745,
      "perveni": 3746,
      "##rique": 3747,
      "accident": 3748,
      "ascend": 3749,
      "remanet": 3750,
      "##uisset": 3751,
      "ingen": 3752,
      "##abb": 3753,
      "##edunt": 3754,
      "naturales": 3755,
      "contemn": 3756,
      "superius": 3757,
      "universalis": 3758,
      "eamdem": 3759,
      "##erens": 3760,
      "##icis": 3761,
      "partium": 3762,
      "adhib": 3763,
      "##stantia": 3764,
      "Ac": 3765,
      "Sep": 3766,
      "talibus": 3767,
      "Primum": 3768,
      "Angelos": 3769,
      "nimis": 3770,
      "##ariam": 3771,
      "facti": 3772,
      "possibilis": 3773,
      "sanctis": 3774,
      "tyrann": 3775,
      "##itium": 3776,
      "dolor": 3777,
      "##raesent": 3778,
      "##idium": 3779,
      "dicebat": 3780,
      "Inter": 3781,
      "liberi": 3782,
      "dimens": 3783,
      "justitiae": 3784,
      "Theophyl": 3785,
      "Theophylactus": 3786,
      "complet": 3787,
      "humani": 3788,
      "##ast": 3789,
      "##osuit": 3790,
      "pertinere": 3791,
      "superbia": 3792,
      "Heb": 3793,
      "##az": 3794,
      "adulter": 3795,
      "repraesent": 3796,
      "##osus": 3797,
      "quaerit": 3798,
      "loquendo": 3799,
      "coron": 3800,
      "altero": 3801,
      "secum": 3802,
      "qualibet": 3803,
      "Di": 3804,
      "vocem": 3805,
      "##quisque": 3806,
      "videmus": 3807,
      "proprio": 3808,
      "cognitionis": 3809,
      "cupid": 3810,
      "diceret": 3811,
      "cognosci": 3812,
      "privatio": 3813,
      "##oto": 3814,
      "vix": 3815,
      "requi": 3816,
      "Ulterius": 3817,
      "##tores": 3818,
      "##ico": 3819,
      "preti": 3820,
      "causatur": 3821,
      "longe": 3822,
      "virum": 3823,
      "##ing": 3824,
      "quaeruntur": 3825,
      "sequeretur": 3826,
      "metaph": 3827,
      "bonitatis": 3828,
      "##itiae": 3829,
      "immo": 3830,
      "##utione": 3831,
      "determinatum": 3832,
      "##cum": 3833,
      "partis": 3834,
      "excedit": 3835,
      "collig": 3836,
      "alt": 3837,
      "redemp": 3838,
      "attrib": 3839,
      "celebr": 3840,
      "##elli": 3841,
      "cadit": 3842,
      "##averat": 3843,
      "art": 3844,
      "nostro": 3845,
      "decem": 3846,
      "Matthae": 3847,
      "difficult": 3848,
      "mus": 3849,
      "singulis": 3850,
      "Baptismo": 3851,
      "Ist": 3852,
      "##tri": 3853,
      "agente": 3854,
      "moventur": 3855,
      "inest": 3856,
      "praeex": 3857,
      "Apoc": 3858,
      "dicebant": 3859,
      "animi": 3860,
      "applic": 3861,
      "immobil": 3862,
      "miracula": 3863,
      "##uxit": 3864,
      "merito": 3865,
      "arb": 3866,
      "delectationem": 3867,
      "##gressus": 3868,
      "##se": 3869,
      "##itorum": 3870,
      "postmodum": 3871,
      "respicit": 3872,
      "quosdam": 3873,
      "Hebr": 3874,
      "Jes": 3875,
      "##tinc": 3876,
      "prophetae": 3877,
      "attin": 3878,
      "mortuus": 3879,
      "praemissis": 3880,
      "),": 3881,
      "ignorantia": 3882,
      "##eni": 3883,
      "##antiae": 3884,
      "##ulae": 3885,
      "avari": 3886,
      "unitas": 3887,
      "sententiam": 3888,
      "cec": 3889,
      "activa": 3890,
      "captiv": 3891,
      "##ihil": 3892,
      "inh": 3893,
      "communem": 3894,
      "spirituali": 3895,
      "fuerint": 3896,
      "remed": 3897,
      "glorios": 3898,
      "penitus": 3899,
      "deinde": 3900,
      "Magis": 3901,
      "##ecum": 3902,
      "utrius": 3903,
      "patitur": 3904,
      "puer": 3905,
      "evid": 3906,
      "distinguuntur": 3907,
      "##teret": 3908,
      "loqui": 3909,
      "scandal": 3910,
      "##issa": 3911,
      "servus": 3912,
      "larg": 3913,
      "debuit": 3914,
      "tripliciter": 3915,
      "conjunc": 3916,
      "utriusque": 3917,
      "dicentes": 3918,
      "fra": 3919,
      "##eth": 3920,
      "##upp": 3921,
      "loca": 3922,
      "Sunt": 3923,
      "ren": 3924,
      "##ras": 3925,
      "Aquino": 3926,
      "Spir": 3927,
      "##inv": 3928,
      "##esaur": 3929,
      "##diu": 3930,
      "interius": 3931,
      "##lam": 3932,
      "Quasi": 3933,
      "solo": 3934,
      "prox": 3935,
      "manibus": 3936,
      "iac": 3937,
      "##asph": 3938,
      "##elibus": 3939,
      "nolite": 3940,
      "\".": 3941,
      "##acia": 3942,
      "fideles": 3943,
      "justitia": 3944,
      "##item": 3945,
      "##ioni": 3946,
      "compl": 3947,
      "locis": 3948,
      "deficit": 3949,
      "praev": 3950,
      "restitu": 3951,
      "universali": 3952,
      "aeterno": 3953,
      "praecepto": 3954,
      "sanguinis": 3955,
      "intelligatur": 3956,
      "istud": 3957,
      "Mor": 3958,
      "##andem": 3959,
      "exprim": 3960,
      "secur": 3961,
      "mater": 3962,
      "sanguine": 3963,
      "arbitrii": 3964,
      "Not": 3965,
      "inha": 3966,
      "mac": 3967,
      "semin": 3968,
      "26": 3969,
      "Alex": 3970,
      "mentem": 3971,
      "radic": 3972,
      "condem": 3973,
      "frequenter": 3974,
      "constat": 3975,
      "perfecti": 3976,
      "futuro": 3977,
      "##tice": 3978,
      "tuus": 3979,
      "visio": 3980,
      "coniug": 3981,
      "##pot": 3982,
      "quant": 3983,
      "##imi": 3984,
      "utp": 3985,
      "diversae": 3986,
      "pedes": 3987,
      "##ariae": 3988,
      "sabb": 3989,
      "Iudaei": 3990,
      "providentia": 3991,
      "Origenes": 3992,
      "quocumque": 3993,
      "humili": 3994,
      "maledic": 3995,
      "genera": 3996,
      "##unic": 3997,
      "contrario": 3998,
      "##icitur": 3999,
      "volup": 4000,
      "reprob": 4001,
      "unusquisque": 4002,
      "##logis": 4003,
      "##ido": 4004,
      "posterius": 4005,
      "##IT": 4006,
      "##alitate": 4007,
      "isto": 4008,
      "##ursus": 4009,
      "##ositiones": 4010,
      "ejusdem": 4011,
      "glorific": 4012,
      "intellectualis": 4013,
      "petit": 4014,
      "##asch": 4015,
      "##acter": 4016,
      "quantitas": 4017,
      "Joann": 4018,
      "particular": 4019,
      "phantasm": 4020,
      "Propter": 4021,
      "blasph": 4022,
      "##oseph": 4023,
      "quaest": 4024,
      "##issime": 4025,
      "luxur": 4026,
      "vox": 4027,
      "##itatum": 4028,
      "##titudo": 4029,
      "rationi": 4030,
      "QU": 4031,
      "impedit": 4032,
      "proximi": 4033,
      "27": 4034,
      "credit": 4035,
      "societ": 4036,
      "fundam": 4037,
      "Vir": 4038,
      "hom": 4039,
      "##ominus": 4040,
      "probatur": 4041,
      "novo": 4042,
      "sanguis": 4043,
      "distinctio": 4044,
      "diversitas": 4045,
      "##undus": 4046,
      "##etips": 4047,
      "##enum": 4048,
      "quaestio": 4049,
      "Scripturae": 4050,
      "Num": 4051,
      "rog": 4052,
      "sil": 4053,
      "##tent": 4054,
      "dub": 4055,
      "##aciam": 4056,
      "doctrinae": 4057,
      "ipsos": 4058,
      "perfectam": 4059,
      "devo": 4060,
      "gentium": 4061,
      "##ativum": 4062,
      "thesaur": 4063,
      "syllogis": 4064,
      "Mul": 4065,
      "spiritualem": 4066,
      "##insec": 4067,
      "affectum": 4068,
      "vitia": 4069,
      "terminum": 4070,
      "intentione": 4071,
      "auctoritatem": 4072,
      "the": 4073,
      "Sciendum": 4074,
      "cam": 4075,
      "cav": 4076,
      "videatur": 4077,
      "altera": 4078,
      "originale": 4079,
      "##atium": 4080,
      "iniur": 4081,
      "revers": 4082,
      "Iesum": 4083,
      "quiet": 4084,
      "##ativae": 4085,
      "poenitentiae": 4086,
      "mart": 4087,
      "caeter": 4088,
      "animalis": 4089,
      "superfici": 4090,
      "flum": 4091,
      "##tif": 4092,
      "##ateria": 4093,
      "##ungitur": 4094,
      "quarto": 4095,
      "maiorem": 4096,
      "profic": 4097,
      "Physic": 4098,
      "Dec": 4099,
      "vim": 4100,
      "pervers": 4101,
      "malus": 4102,
      "rege": 4103,
      "immateria": 4104,
      "effectu": 4105,
      "misericordiam": 4106,
      "Hil": 4107,
      "##oria": 4108,
      "circumcis": 4109,
      "##titer": 4110,
      "ingr": 4111,
      "comparatur": 4112,
      "qualis": 4113,
      "ing": 4114,
      "sensibilibus": 4115,
      "introduc": 4116,
      "blasphem": 4117,
      "corruptio": 4118,
      "ecclesias": 4119,
      "philosophi": 4120,
      "universi": 4121,
      "oculos": 4122,
      "utique": 4123,
      "##NT": 4124,
      "##ularis": 4125,
      "##uven": 4126,
      "ultimo": 4127,
      "Sancti": 4128,
      "utpote": 4129,
      "pe": 4130,
      "vas": 4131,
      "##iles": 4132,
      "velit": 4133,
      "creata": 4134,
      "semp": 4135,
      "fall": 4136,
      "tribu": 4137,
      "inferioribus": 4138,
      "ferv": 4139,
      "exaud": 4140,
      "fidel": 4141,
      "descendit": 4142,
      "major": 4143,
      "patria": 4144,
      "##eiun": 4145,
      "Jerusalem": 4146,
      "curr": 4147,
      "le": 4148,
      "##bat": 4149,
      "abstrac": 4150,
      "sempiter": 4151,
      "philosophia": 4152,
      "maris": 4153,
      "##idus": 4154,
      "destru": 4155,
      "propheta": 4156,
      "oculis": 4157,
      "##onia": 4158,
      "impugn": 4159,
      "divini": 4160,
      "caelestia": 4161,
      "scriptum": 4162,
      "cale": 4163,
      "cert": 4164,
      "##olym": 4165,
      "capite": 4166,
      "declin": 4167,
      "templum": 4168,
      "elect": 4169,
      "Tertia": 4170,
      "##sc": 4171,
      "animo": 4172,
      "pontific": 4173,
      "legi": 4174,
      "##tias": 4175,
      "defin": 4176,
      "tenebr": 4177,
      "dilectio": 4178,
      "recogn": 4179,
      "visione": 4180,
      "mediante": 4181,
      "fieret": 4182,
      "responsio": 4183,
      "neglig": 4184,
      "adha": 4185,
      "retr": 4186,
      "##dec": 4187,
      "##enis": 4188,
      "divinitatis": 4189,
      "fidelium": 4190,
      "obsc": 4191,
      "##rexit": 4192,
      "tuae": 4193,
      "dispositionem": 4194,
      "secret": 4195,
      "attend": 4196,
      "pulc": 4197,
      "posteri": 4198,
      "sublim": 4199,
      "uir": 4200,
      "##yri": 4201,
      "filiis": 4202,
      "deriv": 4203,
      "##du": 4204,
      "dimitt": 4205,
      "Pharis": 4206,
      "lingua": 4207,
      "ieiun": 4208,
      "##eratur": 4209,
      "##atenus": 4210,
      "sensibilia": 4211,
      "religionis": 4212,
      "rect": 4213,
      "##entiss": 4214,
      "generatur": 4215,
      "eleg": 4216,
      "evang": 4217,
      "fortitudo": 4218,
      "dia": 4219,
      "procedere": 4220,
      "omnipot": 4221,
      "##ravit": 4222,
      "##tivam": 4223,
      "inveniuntur": 4224,
      "videns": 4225,
      "poni": 4226,
      "delic": 4227,
      "novum": 4228,
      "convenienter": 4229,
      "##UT": 4230,
      "##olunt": 4231,
      "extrinsec": 4232,
      "litteram": 4233,
      "##ientes": 4234,
      "plant": 4235,
      "semel": 4236,
      "Notandum": 4237,
      "##ardus": 4238,
      "##ovit": 4239,
      "idol": 4240,
      "28": 4241,
      "semine": 4242,
      "invis": 4243,
      "creaturas": 4244,
      "Pharisae": 4245,
      "hora": 4246,
      "##ustra": 4247,
      "consenti": 4248,
      "nullam": 4249,
      "suppositum": 4250,
      "##iores": 4251,
      "sacra": 4252,
      "inferiores": 4253,
      "Rem": 4254,
      "libri": 4255,
      "ultima": 4256,
      "magnitudinem": 4257,
      "attribuitur": 4258,
      "Cuius": 4259,
      "##ga": 4260,
      "speciali": 4261,
      "irration": 4262,
      "redi": 4263,
      "refertur": 4264,
      "temp": 4265,
      "repar": 4266,
      "acced": 4267,
      "##liv": 4268,
      "prol": 4269,
      "visum": 4270,
      "directe": 4271,
      "nunti": 4272,
      "Sen": 4273,
      "instanti": 4274,
      "proposito": 4275,
      "cleric": 4276,
      "Nihil": 4277,
      "intro": 4278,
      "pueri": 4279,
      "##ositi": 4280,
      "imple": 4281,
      "voluntati": 4282,
      "multitudine": 4283,
      "Evangelis": 4284,
      "veteris": 4285,
      "caec": 4286,
      "affectus": 4287,
      "actiones": 4288,
      "spha": 4289,
      "maxima": 4290,
      "##ich": 4291,
      "disput": 4292,
      "frater": 4293,
      "pasc": 4294,
      "disting": 4295,
      "notandum": 4296,
      "sententia": 4297,
      "testamenti": 4298,
      "##CC": 4299,
      "reges": 4300,
      "habebant": 4301,
      "remo": 4302,
      "semen": 4303,
      "moveatur": 4304,
      "consequuntur": 4305,
      "ponuntur": 4306,
      "nutri": 4307,
      "mari": 4308,
      "##otus": 4309,
      "Moyses": 4310,
      "votum": 4311,
      "spe": 4312,
      "divitias": 4313,
      "##ilibus": 4314,
      "##ositionis": 4315,
      "curam": 4316,
      "comed": 4317,
      "sensibilis": 4318,
      "##dix": 4319,
      "##itibus": 4320,
      "##extum": 4321,
      "Sar": 4322,
      "nup": 4323,
      "##uique": 4324,
      "regim": 4325,
      "rationibus": 4326,
      "immin": 4327,
      "principali": 4328,
      "nulli": 4329,
      "##invicem": 4330,
      "Alexand": 4331,
      "condemn": 4332,
      "faciens": 4333,
      "universale": 4334,
      "imaginem": 4335,
      "saltem": 4336,
      "considerari": 4337,
      "aure": 4338,
      "dilectionis": 4339,
      "##uerat": 4340,
      "destruc": 4341,
      "dubitationem": 4342,
      "dependet": 4343,
      "Damascenus": 4344,
      "conscientia": 4345,
      "inquam": 4346,
      "commut": 4347,
      "desper": 4348,
      "spiritualibus": 4349,
      "sacramentis": 4350,
      "audit": 4351,
      "##emper": 4352,
      "peccatores": 4353,
      "pauci": 4354,
      "aeternae": 4355,
      "um": 4356,
      "predic": 4357,
      "##endae": 4358,
      "personis": 4359,
      "##ommunic": 4360,
      "principibus": 4361,
      "compositum": 4362,
      "causat": 4363,
      "mathem": 4364,
      "fidelis": 4365,
      "milit": 4366,
      "praesupp": 4367,
      "Illud": 4368,
      "cito": 4369,
      "##pectu": 4370,
      "ubique": 4371,
      "sagit": 4372,
      "##essus": 4373,
      "##arie": 4374,
      "##itti": 4375,
      "inj": 4376,
      "unic": 4377,
      "all": 4378,
      "praesci": 4379,
      "nig": 4380,
      "cognoscat": 4381,
      "spiritualia": 4382,
      "exalt": 4383,
      "gem": 4384,
      "facili": 4385,
      "respondit": 4386,
      "Ezech": 4387,
      "tor": 4388,
      "viae": 4389,
      "##aculum": 4390,
      "tertiam": 4391,
      "commin": 4392,
      "commemor": 4393,
      "continetur": 4394,
      "delectationes": 4395,
      "nova": 4396,
      "duodecim": 4397,
      "##num": 4398,
      "locutus": 4399,
      "totus": 4400,
      "revoc": 4401,
      "br": 4402,
      "adop": 4403,
      "propriis": 4404,
      "usur": 4405,
      "glori": 4406,
      "timorem": 4407,
      "tandem": 4408,
      "##gere": 4409,
      "prac": 4410,
      "aliquos": 4411,
      "leges": 4412,
      "##ibilium": 4413,
      "lumine": 4414,
      "panem": 4415,
      "confus": 4416,
      "determinata": 4417,
      "cuiuslibet": 4418,
      "deduc": 4419,
      "Ipse": 4420,
      "viribus": 4421,
      "filiorum": 4422,
      "occis": 4423,
      "exemplo": 4424,
      "quantitatis": 4425,
      "fraud": 4426,
      "##oper": 4427,
      "pax": 4428,
      "infidel": 4429,
      "Evangelista": 4430,
      "duabus": 4431,
      "contrah": 4432,
      "malos": 4433,
      "intelligentia": 4434,
      "repreh": 4435,
      "Petri": 4436,
      "substantiis": 4437,
      "albed": 4438,
      "Sim": 4439,
      "##liter": 4440,
      "##eribus": 4441,
      "afflic": 4442,
      "(§": 4443,
      "Em": 4444,
      "amat": 4445,
      "error": 4446,
      "periculum": 4447,
      "##...": 4448,
      "cu": 4449,
      "quoti": 4450,
      "improb": 4451,
      "hinc": 4452,
      "exig": 4453,
      "patres": 4454,
      "spirit": 4455,
      "perfectus": 4456,
      "Apost": 4457,
      "##cia": 4458,
      "##imode": 4459,
      "Quare": 4460,
      "superiori": 4461,
      "summum": 4462,
      "sancta": 4463,
      "gentibus": 4464,
      "##uam": 4465,
      "prav": 4466,
      "frui": 4467,
      "fluv": 4468,
      "provoc": 4469,
      "Baptismi": 4470,
      "septimum": 4471,
      "pervenit": 4472,
      "##entu": 4473,
      "##ensionem": 4474,
      "loci": 4475,
      "recta": 4476,
      "##anos": 4477,
      "crud": 4478,
      "sequuntur": 4479,
      "valet": 4480,
      "hostes": 4481,
      "Car": 4482,
      "##endunt": 4483,
      "operationis": 4484,
      "cives": 4485,
      "supplic": 4486,
      "hostium": 4487,
      "pacis": 4488,
      "subtrah": 4489,
      "trip": 4490,
      "##andus": 4491,
      "##uis": 4492,
      "##uere": 4493,
      "nominis": 4494,
      "obsequ": 4495,
      "fines": 4496,
      "substantias": 4497,
      "adventum": 4498,
      "##ensi": 4499,
      "virgo": 4500,
      "bonos": 4501,
      "ceteris": 4502,
      "angelic": 4503,
      "crucif": 4504,
      "contri": 4505,
      "conced": 4506,
      "venire": 4507,
      "liter": 4508,
      "deorsum": 4509,
      "##abund": 4510,
      "videbatur": 4511,
      "solemn": 4512,
      "dexter": 4513,
      "Quomodo": 4514,
      "(...": 4515,
      "addi": 4516,
      "diversimode": 4517,
      "color": 4518,
      "Alii": 4519,
      "Diaboli": 4520,
      "(...)": 4521,
      "tendit": 4522,
      "##ulari": 4523,
      "parum": 4524,
      "animalium": 4525,
      "accipiatur": 4526,
      "superfl": 4527,
      "manum": 4528,
      "efficitur": 4529,
      "conditionem": 4530,
      "ascendit": 4531,
      "unicuique": 4532,
      "##onibus": 4533,
      "##ivi": 4534,
      "apostolorum": 4535,
      "vestim": 4536,
      "compet": 4537,
      "perficitur": 4538,
      "peri": 4539,
      "procur": 4540,
      "dilectionem": 4541,
      "discre": 4542,
      "milites": 4543,
      "requirit": 4544,
      "augmentum": 4545,
      "Huius": 4546,
      "volens": 4547,
      ".-": 4548,
      "infus": 4549,
      "argu": 4550,
      "presb": 4551,
      "lo": 4552,
      "sanctit": 4553,
      "caelorum": 4554,
      "expedi": 4555,
      "vestrum": 4556,
      "comparatione": 4557,
      "fav": 4558,
      "##irent": 4559,
      "##abis": 4560,
      "##asset": 4561,
      "promp": 4562,
      "distinctionem": 4563,
      "Omne": 4564,
      "relinquitur": 4565,
      "##ni": 4566,
      "sacerdotes": 4567,
      "30": 4568,
      "poterant": 4569,
      "principatus": 4570,
      "05": 4571,
      "enunci": 4572,
      "vocat": 4573,
      "vuln": 4574,
      "haeretic": 4575,
      "spiritualiter": 4576,
      "deliber": 4577,
      "fab": 4578,
      "Eccl": 4579,
      "quicquid": 4580,
      "deput": 4581,
      "tabern": 4582,
      "tol": 4583,
      "pulchr": 4584,
      "appropinqu": 4585,
      "animas": 4586,
      "aequaliter": 4587,
      "annunti": 4588,
      "denomin": 4589,
      "impedimentum": 4590,
      "Comm": 4591,
      "##trans": 4592,
      "vener": 4593,
      "##athol": 4594,
      "dicetur": 4595,
      "sequi": 4596,
      "temporalia": 4597,
      "praecedit": 4598,
      "gravius": 4599,
      "urbis": 4600,
      "CAPUT": 4601,
      "##udi": 4602,
      "##ensa": 4603,
      "originem": 4604,
      "percus": 4605,
      "##uto": 4606,
      "adveni": 4607,
      "illae": 4608,
      "praeb": 4609,
      "Rex": 4610,
      "##XV": 4611,
      "alim": 4612,
      "resurrectionis": 4613,
      "meis": 4614,
      "appe": 4615,
      "Omnis": 4616,
      "felicitas": 4617,
      "Ost": 4618,
      "decip": 4619,
      "##faci": 4620,
      "praedictam": 4621,
      "Iudaeis": 4622,
      "scandalum": 4623,
      "##su": 4624,
      "continet": 4625,
      "Evangelium": 4626,
      "patriarch": 4627,
      "homic": 4628,
      "theolog": 4629,
      "praesentia": 4630,
      "##olit": 4631,
      "coepit": 4632,
      "lucem": 4633,
      "##ppe": 4634,
      "corporalem": 4635,
      "nominat": 4636,
      "caelest": 4637,
      "Exod": 4638,
      "disciplin": 4639,
      "episcopi": 4640,
      "##aginta": 4641,
      "zel": 4642,
      "millia": 4643,
      "aeris": 4644,
      "cooper": 4645,
      "Adh": 4646,
      "Poss": 4647,
      "beat": 4648,
      "##orium": 4649,
      "Franc": 4650,
      "##eas": 4651,
      "amar": 4652,
      "voce": 4653,
      "castra": 4654,
      "Le": 4655,
      "##eta": 4656,
      "##alog": 4657,
      "impress": 4658,
      "Una": 4659,
      "confid": 4660,
      "Ille": 4661,
      "triplex": 4662,
      "pleb": 4663,
      "justitiam": 4664,
      "incorpor": 4665,
      "pisc": 4666,
      "subiecti": 4667,
      "appetitum": 4668,
      "beatitudinis": 4669,
      "exteriori": 4670,
      "subsistens": 4671,
      "Intel": 4672,
      "##trum": 4673,
      "effec": 4674,
      "occurr": 4675,
      "caelestium": 4676,
      "Re": 4677,
      "##asci": 4678,
      "##OR": 4679,
      "adduc": 4680,
      "actione": 4681,
      "corporalibus": 4682,
      "flag": 4683,
      "quasdam": 4684,
      "immort": 4685,
      "Genes": 4686,
      "interpretatur": 4687,
      "moralis": 4688,
      "visionem": 4689,
      "mensuram": 4690,
      "Super": 4691,
      "exec": 4692,
      "opposita": 4693,
      "distinguitur": 4694,
      "angus": 4695,
      "sufficienter": 4696,
      "explic": 4697,
      "##endat": 4698,
      "hod": 4699,
      "##public": 4700,
      "actionis": 4701,
      "videri": 4702,
      "gratis": 4703,
      "reced": 4704,
      "entis": 4705,
      "epistola": 4706,
      "vivit": 4707,
      "honore": 4708,
      "sufficiens": 4709,
      "sermone": 4710,
      "Paulus": 4711,
      "Bene": 4712,
      "Her": 4713,
      "##ebitur": 4714,
      "convertitur": 4715,
      "essentialiter": 4716,
      "Adhuc": 4717,
      "consul": 4718,
      "meae": 4719,
      "extendit": 4720,
      "educ": 4721,
      "##enn": 4722,
      "pari": 4723,
      "subito": 4724,
      "persequ": 4725,
      "considerat": 4726,
      "##entio": 4727,
      "miseri": 4728,
      "propheti": 4729,
      "saeculi": 4730,
      "tenet": 4731,
      "volupt": 4732,
      "XIX": 4733,
      "Turc": 4734,
      "natum": 4735,
      "##dibus": 4736,
      "sacrificium": 4737,
      "ast": 4738,
      "iram": 4739,
      "##undum": 4740,
      "haberi": 4741,
      "vidi": 4742,
      "movere": 4743,
      "intellectiva": 4744,
      "essendi": 4745,
      "Contin": 4746,
      "beneficium": 4747,
      "misericordiae": 4748,
      "festin": 4749,
      "ole": 4750,
      "##usc": 4751,
      "praest": 4752,
      "##inistr": 4753,
      "odio": 4754,
      "Marc": 4755,
      "insid": 4756,
      "constituit": 4757,
      "Aut": 4758,
      "spl": 4759,
      "participationem": 4760,
      "li": 4761,
      "odium": 4762,
      "armis": 4763,
      "brev": 4764,
      "posita": 4765,
      "Ephes": 4766,
      "mortali": 4767,
      "Quinto": 4768,
      "##atitud": 4769,
      "obscur": 4770,
      "Bab": 4771,
      "tene": 4772,
      "consue": 4773,
      "faceret": 4774,
      "significant": 4775,
      "##lae": 4776,
      "##din": 4777,
      "##icumque": 4778,
      "perfectione": 4779,
      "praeterm": 4780,
      "annos": 4781,
      "melior": 4782,
      "Lc": 4783,
      "##elinqu": 4784,
      "claus": 4785,
      "Angelo": 4786,
      "ecclesiae": 4787,
      "excommunic": 4788,
      "mendacium": 4789,
      "##erci": 4790,
      "##usque": 4791,
      "artic": 4792,
      "XVI": 4793,
      "32": 4794,
      "pertrans": 4795,
      "##tig": 4796,
      "difficile": 4797,
      "##tris": 4798,
      "aliarum": 4799,
      "numer": 4800,
      "##ilem": 4801,
      "integ": 4802,
      "impet": 4803,
      "istorum": 4804,
      "plurimum": 4805,
      "propon": 4806,
      "clav": 4807,
      "argum": 4808,
      "cant": 4809,
      "##imis": 4810,
      "proveni": 4811,
      "veram": 4812,
      "fugi": 4813,
      "solet": 4814,
      "postul": 4815,
      "semetips": 4816,
      "frustra": 4817,
      "character": 4818,
      "Abrahae": 4819,
      "Quamvis": 4820,
      "distribu": 4821,
      "propriae": 4822,
      "imperium": 4823,
      "subiungit": 4824,
      "plena": 4825,
      "##tarum": 4826,
      "Ecce": 4827,
      "datum": 4828,
      "corrig": 4829,
      "superabund": 4830,
      "commiss": 4831,
      "facie": 4832,
      "exced": 4833,
      "urbe": 4834,
      "veteri": 4835,
      "interf": 4836,
      "magno": 4837,
      "videntes": 4838,
      "servit": 4839,
      "errorem": 4840,
      "transit": 4841,
      "incontin": 4842,
      "remedium": 4843,
      "Sex": 4844,
      "cura": 4845,
      "perduc": 4846,
      "diversific": 4847,
      "ostendere": 4848,
      "instrumentum": 4849,
      "sicc": 4850,
      "abl": 4851,
      "intelligibiles": 4852,
      "defectu": 4853,
      "reducitur": 4854,
      "merced": 4855,
      "##etic": 4856,
      "divinitus": 4857,
      "discipulos": 4858,
      "113": 4859,
      "fortun": 4860,
      "hist": 4861,
      "qualitas": 4862,
      "occult": 4863,
      "cultum": 4864,
      "dilectione": 4865,
      "superioribus": 4866,
      "linea": 4867,
      "Phili": 4868,
      "Hilarius": 4869,
      "pereg": 4870,
      "##udo": 4871,
      "oculi": 4872,
      "ultimus": 4873,
      "mysterium": 4874,
      "29": 4875,
      "##erimus": 4876,
      "velut": 4877,
      "spirituales": 4878,
      "vivific": 4879,
      "seipsam": 4880,
      "Quaedam": 4881,
      "ente": 4882,
      "novit": 4883,
      "malitiam": 4884,
      "acquis": 4885,
      "consangu": 4886,
      "##oquin": 4887,
      "consideratur": 4888,
      "affectu": 4889,
      "religios": 4890,
      "splend": 4891,
      "Ier": 4892,
      "Pasch": 4893,
      "iub": 4894,
      "const": 4895,
      "Babyl": 4896,
      "##amini": 4897,
      "provenit": 4898,
      "hostibus": 4899,
      "bellum": 4900,
      "principalis": 4901,
      "arte": 4902,
      "prosequitur": 4903,
      "persu": 4904,
      "sustent": 4905,
      "divisionem": 4906,
      "##ichil": 4907,
      "versus": 4908,
      "monach": 4909,
      "Civ": 4910,
      "##inibus": 4911,
      "more": 4912,
      "paupert": 4913,
      "Neque": 4914,
      "prophetia": 4915,
      "vellet": 4916,
      "ars": 4917,
      "##timo": 4918,
      "decep": 4919,
      "terminatur": 4920,
      "uxor": 4921,
      "quot": 4922,
      "unio": 4923,
      "arma": 4924,
      "auxilio": 4925,
      "Ibidem": 4926,
      "##endas": 4927,
      "operum": 4928,
      "subjectum": 4929,
      "optimum": 4930,
      "abscond": 4931,
      "sti": 4932,
      "spei": 4933,
      "ordinata": 4934,
      "susp": 4935,
      "oculus": 4936,
      "designatur": 4937,
      "##umer": 4938,
      "naturalia": 4939,
      "speciebus": 4940,
      "XVIII": 4941,
      "stare": 4942,
      "humanis": 4943,
      "elementorum": 4944,
      "tactus": 4945,
      "Salom": 4946,
      "Bern": 4947,
      "##terea": 4948,
      "##IA": 4949,
      "aliquas": 4950,
      "digni": 4951,
      "impon": 4952,
      "suprem": 4953,
      "opiniones": 4954,
      "primis": 4955,
      "ant": 4956,
      "diligenter": 4957,
      "singularia": 4958,
      "benign": 4959,
      "cuncta": 4960,
      "33": 4961,
      "rob": 4962,
      "bonitate": 4963,
      "virtuti": 4964,
      "amicitiae": 4965,
      "interdum": 4966,
      "passus": 4967,
      "Socrates": 4968,
      "relic": 4969,
      "inferior": 4970,
      "instruxit": 4971,
      "Eli": 4972,
      "multae": 4973,
      "cunctis": 4974,
      "fertur": 4975,
      "##eamus": 4976,
      "##UR": 4977,
      "fidelibus": 4978,
      "numquam": 4979,
      "recipere": 4980,
      "apparuit": 4981,
      "Jud": 4982,
      "Mal": 4983,
      "vetus": 4984,
      "##tat": 4985,
      "##bant": 4986,
      "##IC": 4987,
      "includ": 4988,
      "apostolis": 4989,
      "aequiv": 4990,
      "impeditur": 4991,
      "##rec": 4992,
      "tran": 4993,
      "principii": 4994,
      "plan": 4995,
      "iustus": 4996,
      "quantitate": 4997,
      "##uitur": 4998,
      "animum": 4999
    },
    "merges": [
      "##e ##r",
      "##u ##m",
      "##t ##i",
      "##i ##t",
      "##o ##n",
      "q ##u",
      "##u ##s",
      "##e ##n",
      "##i ##s",
      "##a ##t",
      "##e ##m",
      "##i ##c",
      "i ##n",
      "##s ##t",
      "##u ##r",
      "##o ##r",
      "##a ##m",
      "##e ##c",
      "##a ##n",
      "e ##t",
      "##u ##n",
      "##i ##n",
      "##e ##t",
      "##e ##s",
      "##l ##i",
      "##o ##d",
      "##a ##e",
      "p ##r",
      "##i ##m",
      "e ##st",
      "##a ##r",
      "##a ##ti",
      "##q ##u",
      "qu ##od",
      "##u ##t",
      "##e ##d",
      "n ##on",
      "##o ##s",
      "##i ##d",
      "a ##d",
      "##i ##a",
      "##un ##t",
      "##o ##m",
      "c ##on",
      "d ##ic",
      "##e ##l",
      "p ##er",
      "##i ##b",
      "s ##u",
      "##a ##l",
      "##en ##t",
      "##o ##c",
      "##a ##s",
      "##u ##l",
      "d ##e",
      "##en ##ti",
      "##c ##i",
      "e ##x",
      "##an ##t",
      "##d ##um",
      "##i ##r",
      "##it ##ur",
      "##a ##b",
      "##at ##ur",
      "a ##li",
      "##o ##t",
      "##u ##d",
      "##d ##e",
      "##o ##l",
      "##er ##e",
      "##r ##a",
      "##ati ##on",
      "pr ##o",
      "##i ##l",
      "##en ##s",
      "u ##t",
      "##ec ##un",
      "##i ##v",
      "a ##ut",
      "##s ##s",
      "##n ##im",
      "##a ##c",
      "##g ##n",
      "##i ##us",
      "##p ##er",
      "##or ##um",
      "D ##e",
      "aut ##em",
      "##t ##er",
      "s ##ecun",
      "s ##ic",
      "qu ##ae",
      "##ec ##t",
      "e ##ss",
      "##en ##d",
      "u ##n",
      "r ##e",
      "s ##e",
      "h ##oc",
      "qu ##ia",
      "##qu ##e",
      "##ib ##us",
      "a ##c",
      "h ##ab",
      "##om ##in",
      "##ti ##on",
      "##e ##st",
      "##g ##o",
      "secun ##dum",
      "s ##ed",
      "qu ##i",
      "##m ##n",
      "ali ##qu",
      "##p ##s",
      "##l ##ic",
      "p ##ot",
      "o ##mn",
      "##i ##li",
      "e ##r",
      "i ##l",
      "pro ##p",
      "##ti ##n",
      "in ##t",
      "##i ##um",
      "##it ##at",
      "E ##t",
      "##t ##a",
      "v ##er",
      "s ##unt",
      "c ##um",
      "e ##nim",
      "##p ##or",
      "##et ##ur",
      "##ti ##s",
      "c ##or",
      "s ##i",
      "##t ##um",
      "ess ##e",
      "##it ##er",
      "##r ##i",
      "##r ##is",
      "s ##p",
      "##f ##ic",
      "il ##l",
      "##ci ##p",
      "i ##m",
      "sic ##ut",
      "i ##ps",
      "con ##s",
      "##d ##o",
      "##b ##i",
      "v ##el",
      "##ti ##am",
      "##r ##e",
      "##b ##us",
      "i ##de",
      "##t ##us",
      "m ##a",
      "##u ##c",
      "c ##a",
      "S ##ed",
      "pr ##im",
      "##en ##dum",
      "##o ##st",
      "s ##ci",
      "c ##om",
      "d ##iv",
      "a ##b",
      "##et ##er",
      "p ##ar",
      "##ti ##o",
      "dic ##it",
      "qu ##am",
      "v ##ir",
      "d ##i",
      "int ##el",
      "##i ##on",
      "##ati ##o",
      "Q ##u",
      "s ##it",
      "su ##b",
      "##es ##s",
      "##os ##s",
      "##ati ##s",
      "##enti ##a",
      "##ant ##um",
      "##e ##b",
      "pot ##est",
      "##ti ##t",
      "n ##atur",
      "##ar ##i",
      "C ##h",
      "##ation ##em",
      "##ar ##e",
      "e ##tiam",
      "con ##t",
      "##ec ##c",
      "pr ##a",
      "p ##ecc",
      "b ##on",
      "v ##id",
      "a ##nim",
      "##u ##it",
      "##a ##li",
      "c ##o",
      "##p ##p",
      "n ##ec",
      "##is ##s",
      "Ch ##ris",
      "dic ##itur",
      "##at ##um",
      "##i ##o",
      "f ##ac",
      "##f ##f",
      "##er ##s",
      "m ##od",
      "f ##or",
      "qu ##id",
      "t ##er",
      "p ##at",
      "A ##d",
      "pr ##ae",
      "d ##u",
      "s ##im",
      "##li ##g",
      "##v ##en",
      "##o ##b",
      "##lic ##et",
      "d ##is",
      "sci ##licet",
      "##t ##e",
      "er ##go",
      "##itat ##em",
      "s ##ol",
      "##e ##g",
      "##er ##i",
      "##a ##p",
      "##it ##as",
      "o ##r",
      "h ##omin",
      "##o ##v",
      "##d ##i",
      "p ##oss",
      "##in ##e",
      "##o ##p",
      "##c ##c",
      "r ##es",
      "##er ##unt",
      "##tion ##em",
      "##ation ##e",
      "dic ##endum",
      "t ##am",
      "##a ##v",
      "E ##r",
      "in ##f",
      "##al ##is",
      "pr ##in",
      "qu ##a",
      "a ##m",
      "##un ##c",
      "Er ##go",
      "t ##r",
      "##an ##c",
      "su ##per",
      "m ##e",
      "prin ##cip",
      "##unt ##ur",
      "##d ##am",
      "ca ##us",
      "##e ##p",
      "ide ##o",
      "##ec ##i",
      "d ##omin",
      "##t ##o",
      "##ti ##a",
      "m ##an",
      "##t ##u",
      "m ##or",
      "qu ##o",
      "##it ##um",
      "v ##ol",
      "prop ##ter",
      "i ##d",
      "##ant ##ur",
      "g ##en",
      "##an ##do",
      "##in ##em",
      "cor ##por",
      "im ##p",
      "p ##l",
      "##ar ##um",
      "##r ##um",
      "U ##n",
      "a ##l",
      "##ir ##c",
      "##at ##a",
      "m ##ul",
      "##in ##is",
      "o ##per",
      "##gn ##i",
      "##an ##s",
      "##d ##ic",
      "ide ##st",
      "##I ##I",
      "t ##em",
      "p ##on",
      "f ##ili",
      "##enti ##am",
      "##h ##il",
      "##u ##ius",
      "##l ##e",
      "##itat ##e",
      "tam ##en",
      "##ent ##es",
      "sp ##ir",
      "De ##i",
      "##u ##g",
      "##e ##qu",
      "m ##at",
      "##it ##us",
      "ac ##c",
      "##g ##is",
      "a ##n",
      "i ##bi",
      "##l ##ect",
      "a ##r",
      "##is ##i",
      "e ##ius",
      "intel ##lig",
      "for ##m",
      "de ##b",
      "com ##m",
      "c ##ar",
      "##ere ##a",
      "div ##in",
      "##i ##or",
      "##i ##am",
      "##j ##us",
      "in ##ter",
      "a ##pp",
      "qu ##antum",
      "hab ##et",
      "i ##ta",
      "P ##r",
      "ver ##o",
      "De ##us",
      "com ##p",
      "##p ##us",
      "cont ##ra",
      "o ##b",
      "in ##c",
      "s ##t",
      "aliqu ##id",
      "P ##ra",
      "##er ##it",
      "##a ##ci",
      "Un ##de",
      "##et ##erea",
      "##al ##iter",
      "intel ##lect",
      "g ##r",
      "n ##isi",
      "Pra ##eterea",
      "##ib ##il",
      "un ##de",
      "c ##eter",
      "##g ##it",
      "##u ##p",
      "##it ##atis",
      "##t ##em",
      "##at ##us",
      "##ation ##is",
      "##om ##o",
      "n ##e",
      "##ti ##m",
      "f ##id",
      "s ##anc",
      "##g ##itur",
      "e ##a",
      "mod ##o",
      "s ##ac",
      "De ##o",
      "h ##um",
      "qu ##as",
      "o ##st",
      "prim ##o",
      "##ti ##c",
      "##p ##on",
      "c ##irc",
      "##por ##t",
      "I ##n",
      "##tion ##e",
      "##end ##it",
      "##a ##ec",
      "##r ##am",
      "per ##f",
      "ceter ##a",
      "##l ##es",
      "l ##ib",
      "v ##it",
      "or ##d",
      "d ##es",
      "m ##al",
      "f ##i",
      "##p ##lic",
      "##st ##an",
      "##ib ##i",
      "vol ##unt",
      "##er ##v",
      "h ##omo",
      "##t ##r",
      "con ##c",
      "ma ##gis",
      "m ##ot",
      "##i ##ti",
      "##u ##i",
      "A ##n",
      "gen ##er",
      "nec ##ess",
      "p ##o",
      "##as ##s",
      "p ##ost",
      "##id ##er",
      "##m ##in",
      "l ##oc",
      "prae ##dic",
      "##im ##us",
      "s ##ens",
      "gr ##ati",
      "c ##re",
      "##qu ##am",
      "prim ##um",
      "Chris ##ti",
      "##t ##ut",
      "quid ##em",
      "##enti ##s",
      "ill ##ud",
      "e ##o",
      "qu ##ibus",
      "##m ##od",
      "##ven ##i",
      "vir ##tut",
      "per ##s",
      "vid ##etur",
      "sp ##eci",
      "##it ##u",
      "sim ##il",
      "##ed ##i",
      "l ##eg",
      "pr ##oc",
      "##ob ##is",
      "s ##in",
      "quas ##i",
      "##f ##fic",
      "r ##em",
      "##ent ##um",
      "##enti ##ae",
      "##al ##e",
      "omn ##ia",
      "##ent ##ur",
      "##d ##em",
      "c ##r",
      "ver ##b",
      "co ##gn",
      "##it ##ud",
      "a ##g",
      "con ##tin",
      "##at ##e",
      "v ##en",
      "s ##em",
      "##ect ##um",
      "##ul ##l",
      "##ti ##um",
      "f ##aci",
      "##at ##or",
      "##er ##et",
      "t ##u",
      "i ##gitur",
      "##ion ##em",
      "se ##qu",
      "e ##orum",
      "##r ##o",
      "n ##ost",
      "su ##p",
      "s ##um",
      "##is ##t",
      "con ##f",
      "t ##ot",
      "S ##ecun",
      "a ##p",
      "qu ##ando",
      "##er ##at",
      "e ##um",
      "bon ##um",
      "m ##ov",
      "ex ##c",
      "e ##is",
      "per ##tin",
      "f ##u",
      "hum ##an",
      "##ud ##ic",
      "o ##port",
      "##ed ##it",
      "un ##um",
      "##is ##c",
      "##os ##i",
      "##el ##l",
      "##i ##ae",
      "sub ##stan",
      "tem ##por",
      ". ##,",
      "##av ##it",
      "pecc ##atum",
      "##os ##c",
      "##us ##tin",
      "##end ##o",
      "re ##g",
      "sup ##ra",
      "dic ##tum",
      "c ##ae",
      "omn ##es",
      "##tion ##is",
      "a ##t",
      "##ent ##e",
      "n ##ull",
      "##x ##it",
      "##ti ##bus",
      "fac ##it",
      "##g ##u",
      "m ##un",
      "n ##i",
      "e ##i",
      "##er ##ia",
      "##or ##em",
      "a ##ss",
      "div ##ers",
      "sol ##um",
      "p ##ass",
      "de ##f",
      "anim ##a",
      "##i ##f",
      "##er ##t",
      "##it ##a",
      "h ##aec",
      "er ##at",
      "caus ##a",
      "##al ##em",
      "##at ##o",
      "oport ##et",
      "##im ##o",
      "s ##ibi",
      "E ##cc",
      "in ##qu",
      "S ##i",
      "f ##r",
      "##e ##at",
      "al ##ter",
      "comm ##un",
      "##er ##um",
      "po ##en",
      "##ab ##il",
      "##eb ##at",
      "h ##uius",
      "circ ##a",
      "De ##um",
      "ca ##p",
      "g ##l",
      "in ##d",
      "An ##g",
      "i ##us",
      "##at ##em",
      "du ##o",
      "i ##st",
      "##an ##dum",
      "##ti ##v",
      "s ##c",
      "##u ##li",
      "f ##uit",
      "in ##s",
      "##op ##h",
      "pat ##et",
      "aliqu ##is",
      "##u ##b",
      "ni ##hil",
      "##y ##s",
      "r ##ationem",
      "im ##m",
      "pra ##ec",
      "##v ##ers",
      "A ##ug",
      "e ##jus",
      "##li ##us",
      "cogn ##osc",
      "r ##ed",
      "##gni ##fic",
      "o ##p",
      "cor ##pus",
      "se ##p",
      "acc ##id",
      "##p ##l",
      "s ##ine",
      "m ##in",
      "Aug ##ustin",
      "##e ##li",
      "d ##ec",
      "##st ##r",
      "##if ##est",
      "##o ##qu",
      "s ##al",
      "##i ##g",
      "e ##ff",
      "##e ##ti",
      "spir ##itu",
      "ess ##et",
      "ac ##cip",
      "i ##gn",
      "##end ##i",
      "pers ##on",
      "ips ##um",
      "ma ##gn",
      "h ##ic",
      "##e ##x",
      "tr ##ans",
      "D ##ic",
      "ost ##endit",
      "mat ##eria",
      "cons ##ider",
      "N ##on",
      "r ##ec",
      "##enti ##bus",
      "di ##ff",
      "in ##v",
      "omn ##ibus",
      "##ect ##us",
      "prop ##ri",
      "u ##l",
      "##ent ##em",
      "##mod ##i",
      "pra ##es",
      "ac ##tus",
      "##or ##e",
      "sac ##ram",
      "##a ##ud",
      "n ##obis",
      "##e ##i",
      "##plic ##iter",
      "##ir ##m",
      "##ent ##er",
      "##d ##it",
      "##ati ##v",
      "u ##s",
      "##ation ##es",
      "d ##el",
      "ord ##in",
      "ips ##e",
      "##an ##d",
      "re ##p",
      "##t ##h",
      "h ##is",
      "##eci ##p",
      "##x ##im",
      "gl ##or",
      "##ur ##a",
      "Secun ##do",
      "perf ##ec",
      "r ##atio",
      "##en ##e",
      "secun ##do",
      "si ##gnific",
      "##ul ##us",
      "domin ##us",
      "un ##iv",
      "t ##antum",
      "o ##cc",
      "##ion ##e",
      "cont ##r",
      "v ##is",
      "natur ##a",
      "##al ##es",
      "Qu ##od",
      "##ic ##i",
      "ab ##s",
      "n ##os",
      "ali ##a",
      "ex ##p",
      "par ##te",
      "ill ##a",
      "r ##atione",
      "c ##iv",
      "a ##ud",
      "##os ##oph",
      "s ##erv",
      "##um ##que",
      "man ##ifest",
      "##ti ##ae",
      "e ##os",
      "##hil ##osoph",
      "intellect ##us",
      "id ##em",
      "##in ##i",
      "su ##a",
      "##ap ##i",
      "d ##oc",
      "##t ##or",
      "p ##hilosoph",
      "univ ##ers",
      "S ##ic",
      "m ##ed",
      "##ibil ##e",
      "mot ##us",
      "qu ##em",
      "##in ##de",
      "n ##um",
      "##a ##g",
      "ne ##que",
      "##t ##ra",
      "##er ##n",
      "su ##am",
      "Pr ##imo",
      "quae ##dam",
      "ali ##is",
      "Augustin ##us",
      "et ##c",
      "##u ##x",
      "##iv ##e",
      "##ir ##e",
      "##u ##jus",
      "n ##omin",
      "##at ##u",
      "##tit ##ud",
      "##ri ##p",
      "##un ##d",
      "Chris ##tus",
      "Ecc ##les",
      "##i ##gn",
      "##r ##ae",
      "p ##a",
      "d ##eter",
      "ac ##tu",
      "sequ ##itur",
      "aliqu ##a",
      "sin ##t",
      "e ##n",
      "s ##api",
      "##ul ##a",
      "cre ##atur",
      "sem ##per",
      "ut ##rum",
      "natur ##ae",
      "pot ##entia",
      "l ##oqu",
      "mod ##um",
      "pon ##it",
      "##eter ##n",
      "a ##ff",
      "##g ##r",
      "inqu ##antum",
      "##ul ##t",
      "##v ##is",
      "c ##l",
      "v ##oc",
      "##ar ##ia",
      "co ##gni",
      "ap ##ost",
      "##em ##on",
      "deter ##min",
      "cons ##equ",
      "i ##udic",
      "##b ##et",
      "ips ##a",
      "##or ##is",
      "l ##ic",
      "ali ##ud",
      "a ##etern",
      "##ib ##ili",
      "s ##ive",
      "##ti ##us",
      "e ##l",
      "##ali ##a",
      "##c ##h",
      "##ur ##r",
      "anim ##ae",
      "c ##ol",
      "car ##n",
      "e ##am",
      "##i ##i",
      "im ##per",
      "er ##it",
      "##ri ##g",
      "##or ##es",
      "f ##it",
      "vir ##tu",
      "un ##a",
      "an ##te",
      "pl ##ur",
      "Ang ##el",
      "##eb ##ant",
      "I ##tem",
      "m ##is",
      "##l ##ud",
      "##ar ##ium",
      "vir ##tus",
      "De ##inde",
      "su ##bi",
      "dis ##tin",
      "v ##iv",
      "form ##a",
      "spir ##itus",
      "homin ##is",
      "##le ##x",
      "g ##ra",
      "proc ##ed",
      "cr ##ed",
      "##ali ##bus",
      "M ##at",
      "t ##im",
      "##es ##c",
      "su ##um",
      "##er ##etur",
      "del ##ect",
      "d ##ili",
      "hab ##ent",
      "qu ##is",
      "C ##on",
      "pr ##ius",
      "##ar ##et",
      "t ##ra",
      "##o ##li",
      "P ##s",
      "s ##an",
      "p ##op",
      "##ion ##is",
      "##em ##us",
      "##ti ##fic",
      "t ##unc",
      "T ##er",
      "u ##bi",
      "##it ##o",
      "b ##e",
      "natur ##am",
      "##it ##t",
      "si ##gn",
      "I ##s",
      "##h ##ib",
      "##ul ##um",
      "pro ##b",
      "t ##en",
      "huius ##modi",
      "prim ##a",
      "##re ##g",
      "dis ##p",
      "poss ##unt",
      "princip ##ium",
      "b ##ene",
      "prop ##r",
      "##er ##c",
      "##an ##n",
      "##iss ##e",
      "##r ##im",
      "##er ##is",
      "##ant ##es",
      "Mat ##th",
      "t ##e",
      "n ##ov",
      "cae ##l",
      "f ##inem",
      "s ##us",
      "fili ##us",
      "m ##on",
      "A ##r",
      "r ##el",
      "##or ##m",
      "##r ##up",
      "deb ##et",
      "sim ##ul",
      "omn ##is",
      "di ##xit",
      "##em ##pl",
      "##od ##o",
      "##ar ##is",
      "poss ##it",
      "tempor ##e",
      "mal ##um",
      "ter ##tium",
      "pertin ##et",
      "##v ##er",
      "##ul ##o",
      "apost ##ol",
      "##an ##g",
      "f ##al",
      "##t ##es",
      "##b ##it",
      "corpor ##is",
      "E ##x",
      "inf ##in",
      "o ##pp",
      "c ##uius",
      "ob ##s",
      "ma ##xim",
      "##a ##d",
      "##ent ##a",
      "divin ##a",
      "##de ##o",
      "h ##on",
      "sp ##ec",
      "V ##id",
      "##am ##us",
      "c ##ul",
      "##or ##d",
      "##im ##um",
      "Chris ##to",
      "su ##i",
      "##II ##I",
      "a ##lic",
      "R ##es",
      "##ec ##tio",
      "##it ##e",
      "f ##ec",
      "I ##o",
      "##i ##is",
      "##i ##ps",
      "n ##am",
      "qu ##in",
      "ill ##e",
      "res ##p",
      "e ##p",
      "ips ##o",
      "grati ##a",
      "p ##ati",
      "d ##on",
      "##s ##um",
      "hab ##ere",
      "m ##ens",
      "aliqu ##o",
      "con ##veni",
      "##d ##a",
      "##re ##h",
      "homin ##es",
      "##li ##bet",
      "simil ##itud",
      "re ##f",
      "##er ##o",
      "su ##o",
      "##om ##odo",
      "f ##l",
      "praec ##ep",
      "##ect ##u",
      "re ##i",
      "##ia ##s",
      "prop ##h",
      "X ##X",
      "V ##el",
      "d ##im",
      "##om ##en",
      "##t ##ur",
      "##t ##am",
      "a ##equ",
      "se ##ips",
      "m ##em",
      "##v ##it",
      "Res ##pon",
      "j ##us",
      "m ##ut",
      "##h ##i",
      "##r ##em",
      "##ul ##is",
      "u ##ti",
      "m ##i",
      "ius ##ti",
      "r ##erum",
      "in ##ven",
      "d ##il",
      "ips ##ius",
      "I ##I",
      "R ##om",
      "res ##pon",
      "n ##unc",
      "##qu ##ir",
      "N ##am",
      "bon ##a",
      "lic ##et",
      "a ##qu",
      "##enti ##um",
      "il ##li",
      "##ut ##a",
      "o ##c",
      "v ##i",
      "##i ##ens",
      "r ##ation",
      "verb ##um",
      "##u ##per",
      "##as ##c",
      "ost ##end",
      "quid ##am",
      "p ##os",
      "##in ##qu",
      "n ##omen",
      "diff ##er",
      "C ##irc",
      "di ##x",
      "fi ##eri",
      "re ##gn",
      "omn ##e",
      "##ent ##o",
      "v ##est",
      "corpor ##e",
      "re ##bus",
      "C ##um",
      "Dic ##it",
      "##on ##iam",
      "##es ##ti",
      "lib ##er",
      "A ##li",
      "dic ##ens",
      "e ##go",
      "##y ##m",
      "quam ##vis",
      "vit ##a",
      "##tit ##u",
      "tem ##pus",
      "dili ##g",
      "##d ##us",
      "##in ##a",
      "omn ##i",
      "Circ ##a",
      "f ##ut",
      "##in ##c",
      "pra ##eter",
      "##end ##a",
      "##ion ##es",
      "sep ##ar",
      "##ibil ##is",
      "un ##us",
      "pat ##er",
      "intellect ##u",
      "mat ##eri",
      "ma ##li",
      "ea ##dem",
      "##in ##o",
      "dis ##c",
      "su ##is",
      "sin ##g",
      "omn ##ium",
      "simil ##iter",
      "Qu ##ia",
      "##ant ##o",
      "qu ##an",
      "su ##ae",
      "su ##pp",
      "us ##que",
      "an ##n",
      "##tion ##es",
      "mul ##ti",
      "n ##eg",
      "domin ##i",
      "min ##us",
      "c ##ur",
      "dic ##untur",
      "dic ##i",
      "vit ##ae",
      "di ##e",
      "con ##vers",
      "op ##in",
      "di ##gn",
      "##tit ##ur",
      "v ##os",
      "ill ##um",
      "a ##s",
      "##ven ##it",
      "Vid ##etur",
      "##os ##itum",
      "##iss ##et",
      "aliqu ##od",
      "C ##or",
      "qu ##omodo",
      "virtut ##em",
      "speci ##es",
      "##ect ##a",
      "fac ##ere",
      "ter ##min",
      "ex ##ist",
      "##p ##h",
      "i ##r",
      "cons ##ili",
      "qu ##os",
      "Ter ##tio",
      "H ##oc",
      "pra ##em",
      "##ud ##ae",
      "pr ##om",
      "##u ##um",
      "##om ##us",
      "##ur ##g",
      "##im ##a",
      "ex ##ter",
      "##er ##ent",
      "qu ##ar",
      "ali ##o",
      "##el ##ic",
      "in ##di",
      "##fic ##i",
      "fr ##at",
      "v ##obis",
      "be ##ati",
      "ad ##h",
      "##d ##uc",
      "tr ##ia",
      "##o ##g",
      "##in ##t",
      "d ##um",
      "s ##ec",
      "##t ##orum",
      "G ##l",
      "ver ##um",
      "##an ##di",
      "Respon ##deo",
      "r ##ecip",
      "##isc ##op",
      "S ##c",
      "m ##ir",
      "qua ##es",
      "e ##cc",
      "p ##u",
      "##it ##ati",
      "##i ##er",
      "sim ##pliciter",
      "##qu ##id",
      "pon ##itur",
      "f ##inis",
      "par ##tes",
      "e ##s",
      "o ##bi",
      "v ##ic",
      "##tic ##ulus",
      "su ##ffic",
      "cor ##rup",
      "par ##s",
      "i ##am",
      "dis ##cip",
      "acc ##ep",
      "ass ##um",
      "Chris ##tum",
      "d ##uc",
      "caus ##am",
      "divin ##ae",
      "pr ##od",
      "ul ##tim",
      "##ant ##e",
      "##ap ##tis",
      "contr ##ari",
      "##er ##ic",
      "##aptis ##m",
      "ac ##tum",
      "Gl ##oss",
      "ill ##is",
      "qu ##oniam",
      "##es ##tim",
      "pecc ##ato",
      "substan ##tia",
      "##u ##e",
      "ex ##erc",
      "accip ##i",
      "grati ##am",
      "pro ##v",
      "##et ##r",
      "##od ##em",
      "##ol ##l",
      "homin ##em",
      "a ##uc",
      "cul ##p",
      "comp ##ar",
      "maxim ##e",
      "virtu ##tis",
      "Ar ##ticulus",
      "##ab ##it",
      "##t ##ae",
      "er ##ant",
      "##er ##m",
      "philosoph ##us",
      "ist ##a",
      "virtut ##e",
      "gra ##v",
      "par ##ti",
      "##or ##i",
      "H ##ic",
      "##r ##et",
      "accid ##ens",
      "m ##inis",
      "Ps ##al",
      "c ##ui",
      "i ##ter",
      "un ##o",
      "qu ##orum",
      "u ##r",
      "##ob ##il",
      "##ili ##a",
      "##ali ##um",
      "inf ##eri",
      "mi ##hi",
      "l ##uc",
      "ter ##ra",
      "##er ##ant",
      "##on ##em",
      "##p ##lex",
      "tot ##um",
      "e ##v",
      "des ##c",
      "vit ##am",
      "conc ##up",
      "volunt ##as",
      "quando ##que",
      "fili ##i",
      "##u ##erunt",
      "##l ##in",
      "sac ##er",
      "##t ##ud",
      "B ##aptism",
      "m ##il",
      "m ##uli",
      "am ##ic",
      "n ##ot",
      "t ##alis",
      "int ##enti",
      "f ##in",
      "n ##oc",
      "d ##ol",
      "##ect ##e",
      "super ##ior",
      "T ##h",
      "de ##p",
      "Qu ##a",
      "eff ##ectus",
      "fut ##ur",
      "e ##ffic",
      "ess ##entia",
      "ma ##ior",
      "##ic ##em",
      "concup ##isc",
      "fid ##ei",
      "I ##II",
      "##is ##tit",
      "anim ##am",
      "aliqu ##am",
      "##or ##t",
      "form ##am",
      "Gloss ##a",
      "##im ##il",
      "h ##ujus",
      "##ect ##o",
      "e ##odem",
      "sci ##entia",
      "l ##ab",
      "pecc ##ati",
      "d ##emon",
      "des ##ider",
      "##i ##et",
      "ep ##iscop",
      "app ##eti",
      "auc ##tor",
      "fid ##em",
      "j ##udic",
      "poen ##it",
      "ter ##tio",
      "##or ##ibus",
      "##r ##in",
      "dic ##at",
      "##on ##e",
      "ap ##ud",
      "parti ##cip",
      "loc ##o",
      "h ##anc",
      "ind ##uc",
      "v ##al",
      "fi ##g",
      "l ##um",
      "##at ##orum",
      "t ##ibi",
      "##ia ##l",
      "mul ##ta",
      "t ##ur",
      "bon ##i",
      "h ##ac",
      "fac ##ta",
      "in ##i",
      "proced ##itur",
      "fu ##erit",
      "##ib ##u",
      "per ##m",
      "il ##lius",
      "adh ##uc",
      "ex ##empl",
      "h ##os",
      "circ ##um",
      "intellect ##um",
      "sal ##v",
      "re ##quir",
      "imp ##oss",
      "necess ##e",
      "c ##er",
      "##us ##t",
      "##an ##tia",
      "sanc ##ti",
      "r ##ationis",
      "##i ##os",
      "lib ##ro",
      "pra ##ecip",
      "demon ##str",
      "##an ##is",
      "div ##id",
      "t ##an",
      "H ##ier",
      "grati ##ae",
      "1 ##1",
      "in ##n",
      "san ##gu",
      "l ##aud",
      "qua ##er",
      "Sic ##ut",
      "##it ##ter",
      "dic ##ere",
      "distin ##c",
      "##ul ##os",
      "##ed ##ic",
      "g ##aud",
      "ord ##inem",
      "contin ##git",
      "E ##st",
      "d ##ir",
      "at ##que",
      "##at ##ae",
      "homin ##um",
      "E ##v",
      "mor ##tu",
      "I ##es",
      "div ##is",
      "I ##udae",
      "##r ##ib",
      "##ab ##at",
      "quan ##tit",
      "ess ##entiam",
      "Sc ##rip",
      "virtut ##es",
      "leg ##is",
      "inc ##on",
      "##ec ##tionem",
      "poss ##et",
      "pro ##f",
      "##eb ##atur",
      "##or ##a",
      "##osi ##tio",
      "at ##t",
      "hab ##eat",
      "se ##x",
      "##ia ##b",
      "n ##un",
      "##l ##us",
      "mul ##titud",
      "re ##v",
      "loc ##um",
      "##e ##v",
      "##atu ##or",
      "pr ##iv",
      "un ##ius",
      "pl ##en",
      "doc ##tr",
      "pecc ##ata",
      "du ##pliciter",
      "sens ##us",
      "en ##s",
      "er ##r",
      "con ##v",
      "ur ##b",
      "fili ##um",
      "mun ##di",
      "Ang ##eli",
      "##u ##ci",
      "speci ##em",
      "##h ##ar",
      "##u ##ti",
      "sub ##dit",
      "corpor ##a",
      "##an ##i",
      "ill ##o",
      "proph ##et",
      "ips ##i",
      "a ##ur",
      "c ##al",
      "Ch ##r",
      "##e ##ant",
      "sing ##ul",
      "##ati ##m",
      "##er ##us",
      "beati ##tud",
      "f ##ug",
      "med ##ium",
      "1 ##0",
      "cae ##les",
      "Ev ##ang",
      "##tiv ##a",
      "substan ##ti",
      "pr ##ud",
      "Chr ##ys",
      "dic ##unt",
      "##e ##tit",
      "Chrys ##ost",
      "con ##i",
      "propri ##e",
      "##ec ##ti",
      "ali ##i",
      "f ##am",
      "##lud ##it",
      "imposs ##ibile",
      "quod ##am",
      "pl ##us",
      "##ti ##tia",
      "princip ##io",
      "speci ##e",
      "##abil ##e",
      "qu ##atuor",
      "##e ##a",
      "verb ##a",
      "Eccles ##iae",
      "mot ##um",
      "nomin ##e",
      "d ##am",
      "hab ##itus",
      "##i ##unt",
      "apostol ##us",
      "##i ##fic",
      "fal ##s",
      "oper ##a",
      "m ##er",
      "D ##omin",
      "v ##ult",
      "exter ##ior",
      "def ##ini",
      "o ##rig",
      "##b ##ra",
      "gen ##ere",
      "ign ##or",
      "##ti ##b",
      "##li ##a",
      "ad ##m",
      "mor ##t",
      "##abil ##is",
      "con ##di",
      "##id ##em",
      "fec ##it",
      "t ##ris",
      "ad ##vers",
      "i ##s",
      "##a ##emon",
      "ex ##tr",
      "##id ##it",
      "##y ##p",
      "ind ##iv",
      "pat ##ris",
      "manifest ##um",
      "natur ##alis",
      "vir ##g",
      "##an ##tis",
      "volunt ##atem",
      "homin ##ibus",
      "natur ##aliter",
      "##r ##es",
      "st ##atu",
      "ips ##am",
      "ver ##itatem",
      "domin ##o",
      "null ##a",
      "G ##reg",
      "I ##V",
      "fac ##tum",
      "##iti ##v",
      "re ##x",
      "sub ##s",
      "volunt ##atis",
      "##ab ##ant",
      "p ##ul",
      "alter ##ius",
      "##at ##am",
      "Greg ##or",
      "N ##ec",
      "ter ##r",
      "o ##pus",
      "pro ##hib",
      "person ##a",
      "re ##lig",
      "ar ##bit",
      "s ##erm",
      "form ##ae",
      "par ##tic",
      "##av ##erunt",
      "u ##x",
      "##ra ##c",
      "##eb ##r",
      "ter ##ram",
      "inf ##irm",
      "P ##er",
      "U ##t",
      "##y ##l",
      "Chrysost ##omus",
      "C ##ap",
      "##ativ ##a",
      "sum ##m",
      "inven ##itur",
      "A ##m",
      "propr ##ia",
      "sacram ##entum",
      "##f ##ac",
      "mor ##tem",
      "proc ##edit",
      "qu ##are",
      "m ##edi",
      "iter ##um",
      "l ##itter",
      "null ##us",
      "human ##a",
      "Io ##ann",
      "fid ##es",
      "mis ##eric",
      "in ##de",
      "fr ##uc",
      "spir ##itum",
      "el ##em",
      "pa ##uper",
      "X ##I",
      "##u ##v",
      "fili ##o",
      "omn ##ino",
      "app ##ar",
      "##qu ##is",
      "Is ##a",
      "tr ##es",
      "pat ##re",
      "m ##o",
      "##il ##l",
      "##u ##o",
      "X ##V",
      "p ##ac",
      "pr ##os",
      "##r ##ob",
      "pro ##xim",
      "##g ##reg",
      "d ##om",
      "o ##ff",
      "im ##ag",
      "secun ##da",
      "al ##iter",
      "##itat ##es",
      "Qu ##i",
      "quar ##tum",
      "sal ##ut",
      "##ar ##ius",
      "ign ##is",
      "c ##ujus",
      "sanc ##tus",
      "dam ##n",
      "ex ##pon",
      "D ##aemon",
      "##on ##is",
      "a ##ug",
      "c ##as",
      "in ##st",
      "gen ##us",
      "##e ##atur",
      "##ation ##ibus",
      "##on ##ium",
      "P ##h",
      "e ##m",
      "##e ##o",
      "p ##en",
      "propr ##ium",
      "##eb ##it",
      "similitud ##inem",
      "J ##o",
      "##on ##it",
      "ass ##ign",
      "Eccles ##ia",
      "##s ##us",
      "##u ##gn",
      "##t ##os",
      "princip ##ia",
      "necess ##itate",
      "##ens ##um",
      "pertin ##ent",
      "##mod ##o",
      "a ##it",
      "dis ##t",
      "nost ##ra",
      "D ##iab",
      "h ##a",
      "##is ##ti",
      "res ##urr",
      "mov ##etur",
      "o ##d",
      "I ##l",
      "bon ##o",
      "t ##o",
      "homin ##e",
      "at ##tr",
      "cons ##istit",
      "cogni ##tionem",
      "null ##o",
      "respon ##d",
      "##itud ##inem",
      "partic ##ul",
      "##c ##umque",
      "mal ##a",
      "as ##c",
      "co ##git",
      "##iss ##im",
      "ord ##ine",
      "##u ##a",
      "##ac ##h",
      "##r ##os",
      "##ti ##ss",
      "ma ##j",
      "abs ##ol",
      "du ##as",
      "indi ##g",
      "poen ##a",
      "##ibili ##a",
      "imp ##ed",
      "alic ##uius",
      "p ##uta",
      "##em ##p",
      "resp ##ectu",
      "distin ##gu",
      "prov ##id",
      "materi ##am",
      "hab ##etur",
      "tot ##a",
      "##i ##p",
      "##gr ##ess",
      "##ic ##a",
      "##ab ##ili",
      "t ##est",
      "##i ##orum",
      "##u ##et",
      "rem ##an",
      "contin ##g",
      "sus ##c",
      "##el ##is",
      "mul ##to",
      "plur ##es",
      "sacer ##d",
      "##i ##tis",
      "##s ##i",
      "ali ##os",
      "inv ##icem",
      "sub ##j",
      "muli ##er",
      "per ##ic",
      "sign ##um",
      "##osi ##tionem",
      "glor ##iam",
      "n ##o",
      "con ##venit",
      "##ap ##ti",
      "red ##d",
      "##al ##itas",
      "##it ##tit",
      "Et ##h",
      "##e ##per",
      "pro ##ut",
      "signific ##at",
      "##es ##tin",
      "##ur ##am",
      "Qu ##id",
      "##ar ##etur",
      "me ##a",
      "tr ##ib",
      "ex ##tra",
      "##ator ##es",
      "int ##r",
      "regn ##um",
      "##el ##es",
      "volunt ##ate",
      "p ##ut",
      "aliqu ##ando",
      "ver ##a",
      "Gregor ##ius",
      "l ##at",
      "ca ##st",
      "t ##h",
      "##ub ##lic",
      "##and ##a",
      "domin ##um",
      "human ##ae",
      "##ert ##ur",
      "prop ##or",
      "seips ##um",
      "aqu ##a",
      "l ##a",
      "a ##git",
      "pat ##ri",
      "su ##cc",
      "##on ##ym",
      "t ##ent",
      "v ##in",
      "col ##l",
      "uti ##l",
      "##i ##x",
      "Eth ##ic",
      "homin ##i",
      "Psal ##m",
      "##y ##n",
      "p ##h",
      "inf ##ra",
      "infin ##itum",
      "##e ##tis",
      "b ##en",
      "s ##atis",
      "sub ##d",
      "o ##ffic",
      "pat ##rem",
      "loqu ##itur",
      "h ##unc",
      "ali ##am",
      "divin ##am",
      "##ab ##itur",
      "##ut ##us",
      "imper ##f",
      "car ##itas",
      "##at ##es",
      "tra ##d",
      "sapi ##entia",
      "##y ##r",
      "L ##ectio",
      "s ##aec",
      "##ec ##tione",
      "par ##tem",
      "substan ##tiae",
      "mem ##or",
      "aliqu ##em",
      "n ##ol",
      "H ##aec",
      "pot ##entiae",
      "##end ##ere",
      "O ##mn",
      "verb ##o",
      "t ##oll",
      "du ##bit",
      "di ##es",
      "Hier ##onym",
      "abs ##que",
      "st ##ud",
      "##c ##t",
      "d ##en",
      "v ##iti",
      "cons ##erv",
      "l ##on",
      "ven ##it",
      "eff ##ectum",
      "##r ##ess",
      "commun ##ic",
      "a ##per",
      "##i ##at",
      "l ##ex",
      "##er ##int",
      "##un ##ti",
      "t ##anto",
      "omn ##em",
      "p ##un",
      "ecc ##les",
      "##er ##a",
      "##an ##tibus",
      "par ##v",
      "##ep ##it",
      "##en ##us",
      "##qu ##i",
      "fid ##e",
      "L ##uc",
      "al ##b",
      "sim ##plic",
      "mat ##rim",
      "in ##veni",
      "f ##irm",
      "Pr ##ov",
      "##end ##am",
      "leg ##em",
      "##t ##as",
      "##apti ##z",
      "##ap ##h",
      "##an ##us",
      "##os ##ita",
      "app ##reh",
      "person ##ae",
      "##on ##itur",
      "A ##p",
      "##ir ##i",
      "prae ##d",
      "1 ##2",
      "##il ##e",
      "Angel ##us",
      "f ##er",
      "div ##inis",
      "for ##te",
      "proc ##ess",
      "cons ##titu",
      "##str ##u",
      "d ##iss",
      "s ##ent",
      "im ##port",
      "man ##d",
      "incon ##veni",
      "cont ##empl",
      "tu ##a",
      "mot ##u",
      "prod ##uc",
      "ter ##rae",
      "##it ##am",
      "pr ##ior",
      "mir ##ac",
      "ad ##d",
      "inc ##lin",
      "intellig ##itur",
      "intellig ##ere",
      "m ##erit",
      "glor ##ia",
      "per ##p",
      "P ##ost",
      "dic ##atur",
      "red ##uc",
      "creatur ##a",
      "##esti ##unc",
      "b ##aptiz",
      "hab ##ens",
      "##h ##em",
      "intellig ##i",
      "V ##I",
      "c ##ust",
      "In ##f",
      "m ##et",
      "v ##ul",
      "##l ##et",
      "ver ##itas",
      "fi ##at",
      "un ##am",
      "leg ##e",
      "materi ##ae",
      "oper ##atio",
      "ali ##orum",
      "a ##v",
      "##in ##am",
      "re ##gis",
      "##c ##on",
      "mul ##tis",
      "e ##le",
      "##an ##um",
      "st ##atim",
      "l ##ap",
      "an ##g",
      "Con ##s",
      "prae ##p",
      "ad ##v",
      "B ##o",
      "in ##cip",
      "contr ##arium",
      "caus ##ae",
      "bon ##is",
      "##il ##is",
      "cons ##ec",
      "div ##iti",
      "am ##or",
      "##ul ##c",
      "S ##imil",
      "qu ##anto",
      "ar ##g",
      "pot ##entiam",
      "app ##aret",
      "##ris ##t",
      "##equ ##itur",
      "cogni ##tio",
      "L ##ib",
      "##ec ##tionis",
      "praec ##ed",
      "creatur ##ae",
      "##um ##us",
      "fu ##erunt",
      "tam ##quam",
      "num ##ero",
      "di ##ffic",
      "t ##ant",
      "perfec ##tionem",
      "Qu ##ar",
      "tur ##b",
      "su ##os",
      "##ili ##um",
      "quibus ##dam",
      "Qua ##estiunc",
      "Quaestiunc ##ula",
      "ill ##am",
      "p ##ed",
      "me ##um",
      "quod ##dam",
      "A ##l",
      "##ant ##em",
      "ar ##m",
      "pl ##ac",
      "tempor ##is",
      "aliqu ##i",
      "##in ##gu",
      "in ##im",
      "cael ##um",
      "l ##ux",
      "spec ##ial",
      "G ##en",
      "du ##plex",
      "ist ##e",
      "Cap ##ut",
      "##ut ##um",
      "c ##el",
      "t ##um",
      "ag ##ens",
      "oper ##atur",
      "##itud ##o",
      "consequ ##ens",
      "c ##har",
      "quo ##que",
      "or ##do",
      "sc ##rip",
      "##end ##itur",
      "sci ##entiae",
      "illum ##in",
      "ecc ##e",
      "substan ##tiam",
      "M ##a",
      "##al ##itatem",
      "##ic ##us",
      "ali ##as",
      "cust ##od",
      "ali ##us",
      "am ##b",
      "##ti ##tiam",
      "am ##p",
      "verb ##is",
      "des ##ign",
      "alic ##ui",
      "p ##or",
      "f ##ur",
      "##rum ##p",
      "magn ##a",
      "ess ##ent",
      "T ##rin",
      "se ##u",
      "mod ##us",
      "op ##tim",
      "conf ##irm",
      "necess ##arium",
      "speci ##ei",
      "cognosc ##it",
      "e ##qu",
      "hujus ##modi",
      "prop ##ositum",
      "a ##ux",
      "nun ##quam",
      "##an ##e",
      "sci ##entiam",
      "##ot ##a",
      "##ux ##ta",
      "necess ##aria",
      "##er ##em",
      "sanc ##tum",
      "##ol ##us",
      "##iv ##it",
      "trans ##m",
      "fi ##unt",
      "Qu ##ae",
      "obs ##erv",
      "Secun ##dum",
      "P ##l",
      "prob ##at",
      "1 ##3",
      "pot ##enti",
      "cons ##um",
      "1 ##4",
      "##p ##orum",
      "##d ##is",
      "ex ##t",
      "qu ##ic",
      "post ##ea",
      "to ##tius",
      "d ##et",
      "me ##lius",
      "##ter ##ius",
      "subi ##ectum",
      "mov ##et",
      "s ##ustin",
      "anim ##al",
      "alter ##um",
      "dic ##imus",
      "##h ##a",
      "fac ##tus",
      "comp ##reh",
      "multi ##plic",
      "for ##titud",
      "Hieronym ##us",
      "f ##ine",
      "n ##im",
      "sens ##itiv",
      "##ere ##b",
      "d ##ed",
      "##ic ##um",
      "hab ##itum",
      "m ##iss",
      "##i ##e",
      "d ##ur",
      "##u ##erit",
      "mort ##ale",
      "##it ##ae",
      "t ##ri",
      "sens ##u",
      "carn ##is",
      "divid ##itur",
      "s ##oc",
      "##ab ##atur",
      "e ##as",
      "inc ##or",
      "quodam ##modo",
      "t ##ac",
      "lum ##en",
      "1 ##5",
      "##an ##a",
      "d ##edit",
      "##ari ##o",
      "cael ##o",
      "D ##ion",
      "##eb ##antur",
      "##ra ##g",
      "##tion ##ibus",
      "am ##ici",
      "##it ##es",
      "qu ##aliter",
      "iudic ##ium",
      "Simil ##iter",
      "con ##greg",
      "utrum ##que",
      "Dion ##ys",
      "potest ##atem",
      "conc ##ep",
      "##an ##tiam",
      ". ##:",
      "de ##v",
      "mun ##do",
      "tu ##um",
      "quaes ##tionem",
      "p ##et",
      "qu ##e",
      "##u ##f",
      "orig ##in",
      "n ##em",
      "p ##al",
      "##ar ##ch",
      "mul ##tum",
      "vid ##entur",
      "cae ##li",
      "##or ##di",
      "##g ##en",
      "fal ##sum",
      "sanc ##to",
      "determin ##at",
      "lon ##g",
      "virtut ##um",
      "cor ##rump",
      "an ##ti",
      "V ##III",
      "r ##ationes",
      "conf ##ess",
      "M ##o",
      "exc ##ell",
      "v ##inc",
      "l ##ev",
      "s ##enti",
      "hum ##il",
      "con ##j",
      "indiv ##id",
      "d ##at",
      "t ##estim",
      "##u ##tio",
      "##ic ##it",
      "##st ##at",
      "dic ##o",
      "dic ##ta",
      "f ##elic",
      "med ##io",
      "bene ##fic",
      "ali ##en",
      "cor ##de",
      "Ali ##o",
      "praem ##iss",
      "praedic ##ta",
      "fig ##ur",
      "Scrip ##tur",
      "##ut ##e",
      "n ##obil",
      "##oc ##r",
      "per ##c",
      "car ##itatis",
      "vi ##ol",
      "##uet ##ud",
      "##e ##ps",
      "ad ##i",
      "imper ##ator",
      "occ ##id",
      "poss ##e",
      "v ##ia",
      "P ##et",
      "ven ##ia",
      "praecip ##ue",
      "v ##ere",
      "##ent ##orum",
      "duo ##bus",
      "##ro ##g",
      "##ta ##v",
      "ips ##is",
      "##l ##is",
      "aud ##i",
      "tr ##ibus",
      "null ##um",
      "pass ##io",
      "##erunt ##ur",
      "##a ##us",
      "##ven ##ire",
      "Un ##o",
      "accid ##it",
      "s ##en",
      "##ab ##o",
      "divers ##a",
      "ali ##um",
      "c ##ib",
      "rev ##el",
      "ver ##itatis",
      "pa ##uc",
      "##ord ##in",
      "##os ##ito",
      "ca ##li",
      "sum ##us",
      "##in ##ae",
      "##ion ##ibus",
      ". ##\"",
      "##ul ##it",
      "conc ##lus",
      "##a ##x",
      "propri ##et",
      "XX ##X",
      "p ##ecun",
      "v ##ig",
      "j ##am",
      "sol ##a",
      "pecc ##atorum",
      "inf ##id",
      "gener ##is",
      "sens ##ibili",
      "spiritu ##alis",
      "V ##II",
      "##ob ##ili",
      "fu ##isse",
      "##o ##x",
      "ex ##hib",
      "##eli ##um",
      "##b ##idem",
      "b ##ell",
      "s ##per",
      "s ##oli",
      "sp ##on",
      "##itud ##ine",
      "e ##lig",
      "p ##ur",
      "##ar ##ent",
      "appeti ##tus",
      "contr ##aria",
      "d ##atur",
      "v ##eter",
      "man ##us",
      "carn ##em",
      "##on ##i",
      "##l ##u",
      "##ation ##i",
      "poss ##ibile",
      "hab ##uit",
      "consider ##andum",
      "perfec ##tio",
      "v ##ac",
      "perp ##et",
      "##u ##tis",
      "dic ##tis",
      "##r ##op",
      "l ##ingu",
      "##ul ##orum",
      "praed ##estin",
      "ill ##os",
      "oper ##ationem",
      "sanc ##torum",
      "poen ##am",
      "##b ##er",
      "rel ##inqu",
      "loc ##us",
      "n ##ut",
      "cap ##ut",
      "glor ##iae",
      "1 ##6",
      "inter ##ior",
      "aff ##irm",
      "iusti ##tiae",
      "ini ##qu",
      "P ##ar",
      "differ ##entia",
      "##ent ##us",
      "sol ##us",
      "natur ##ali",
      "##ic ##e",
      "pass ##iones",
      "attr ##ibu",
      "praecep ##ta",
      "##ar ##n",
      "ab ##st",
      "##li ##um",
      "trib ##ul",
      "##li ##qu",
      "pot ##uit",
      "sens ##um",
      "co ##p",
      "##t ##ura",
      "s ##or",
      "ob ##edi",
      "i ##ur",
      "##p ##ir",
      "c ##an",
      "##at ##os",
      "nost ##ri",
      "##er ##entur",
      "Ies ##us",
      "##ess ##e",
      "##ot ##um",
      "imag ##in",
      "cor ##porum",
      "t ##ali",
      "##a ##go",
      ". ##;",
      "##ol ##a",
      "ita ##que",
      "ven ##i",
      "Angel ##is",
      "c ##ess",
      "deb ##ent",
      "##ic ##ae",
      "A ##rist",
      "mun ##dum",
      "m ##entis",
      "imm ##edi",
      "de ##fic",
      "ob ##j",
      "faci ##unt",
      "hon ##or",
      "prim ##am",
      "mal ##e",
      "rem ##ov",
      "salut ##em",
      "iusti ##tia",
      "Arist ##ot",
      "##mod ##um",
      "commun ##e",
      "##ot ##e",
      "cons ##tit",
      "pecc ##atis",
      "mor ##tis",
      "##ect ##am",
      "inter ##p",
      "Mo ##ys",
      "s ##ur",
      "er ##unt",
      "inst ##rum",
      "divers ##is",
      "##er ##b",
      "##esc ##it",
      "civ ##itatis",
      "##l ##ec",
      "vir ##i",
      "potest ##ate",
      "A ##bra",
      "##a ##ur",
      "##ant ##as",
      "P ##etr",
      "##em ##n",
      "prop ##inqu",
      "consili ##um",
      "##om ##m",
      "tot ##aliter",
      "sacram ##enti",
      "test ##am",
      "obi ##ectum",
      "ref ##er",
      "ordin ##atur",
      "intellig ##it",
      "po ##tius",
      "accip ##ere",
      "##. ##.",
      "minis ##tr",
      "gener ##atio",
      "c ##up",
      "quin ##tum",
      "##c ##is",
      "1 ##9",
      "extr ##em",
      "##ul ##g",
      "Pr ##o",
      "aetern ##a",
      "quaer ##itur",
      "##r ##ia",
      "re ##gni",
      "cons ##ci",
      "comp ##etit",
      "Abra ##h",
      "simil ##e",
      "##s ##io",
      "p ##anis",
      "1 ##8",
      "re ##ver",
      "##eri ##tis",
      "prom ##iss",
      "d ##omus",
      "perf ##ectum",
      "convers ##o",
      "intellig ##endum",
      "M ##an",
      "corpor ##i",
      "a ##uf",
      "car ##itate",
      "human ##am",
      "quam ##dam",
      "r ##a",
      "r ##et",
      "##gr ##edi",
      "##osi ##tione",
      "dis ##pon",
      "me ##li",
      "praep ##ar",
      "##un ##g",
      "##ar ##c",
      "st ##atum",
      "spec ##ia",
      "requir ##itur",
      "sol ##v",
      "perf ##ecta",
      "oper ##ibus",
      "sus ##cip",
      "mal ##o",
      "n ##av",
      "assum ##p",
      "##n ##a",
      "subs ##ist",
      "##stan ##ti",
      "sanc ##tific",
      "##X ##X",
      "civ ##itatem",
      "prae ##l",
      "sac ##ri",
      "bon ##orum",
      "##in ##ta",
      "##is ##it",
      "Is ##rae",
      "con ##ver",
      "for ##t",
      "##ibil ##em",
      "exist ##ens",
      "transm ##ut",
      "et ##si",
      "man ##duc",
      "ac ##tiv",
      "don ##um",
      "opin ##ionem",
      "Ut ##rum",
      "Pr ##ima",
      "reg ##em",
      "h ##orum",
      "l ##ac",
      "pu ##gn",
      "##on ##es",
      "plur ##ibus",
      "Dic ##endum",
      "##li ##m",
      "##ibil ##es",
      "inconveni ##ens",
      "##tion ##i",
      "m ##ente",
      "e ##d",
      "##er ##es",
      "##in ##us",
      "##an ##o",
      "spec ##ul",
      "sapi ##entiae",
      "Th ##e",
      "##y ##st",
      "subi ##ecto",
      "##ord ##ia",
      "1 ##7",
      "hab ##it",
      "f ##re",
      "##u ##ic",
      "ac ##tio",
      "tot ##o",
      "or ##g",
      "##im ##ur",
      "man ##u",
      "F ##r",
      "car ##o",
      "def ##ectus",
      "int ##endit",
      "##str ##uc",
      "S ##anc",
      "occ ##as",
      "imm ##ut",
      "domin ##e",
      "##os ##a",
      "vid ##et",
      "##ti ##tiae",
      "man ##et",
      "C ##A",
      "ir ##r",
      "o ##s",
      "arbit ##r",
      "par ##tibus",
      "exempl ##um",
      "consec ##r",
      "corpor ##ibus",
      "pass ##ionem",
      "ostend ##itur",
      "G ##ra",
      "l ##ine",
      "infin ##ita",
      "mor ##te",
      "pos ##uit",
      "Israe ##l",
      "h ##yp",
      "##im ##e",
      "manifest ##at",
      "pop ##ulus",
      "minis ##ter",
      "c ##unc",
      "pecc ##at",
      "m ##ar",
      "imp ##l",
      "exc ##ludit",
      "miseric ##ordi",
      "me ##us",
      "m ##end",
      "##ti ##or",
      "propri ##am",
      "##abil ##iter",
      "in ##ius",
      "##ed ##ere",
      "con ##gr",
      "cl ##ar",
      "similitud ##o",
      "poen ##ae",
      "G ##al",
      "mor ##i",
      "##ation ##um",
      "num ##erus",
      "##an ##orum",
      "amp ##lius",
      "##r ##ic",
      "##am ##ur",
      "sp ##es",
      "car ##itatem",
      "comm ##end",
      "pop ##ulo",
      "##er ##ius",
      "d ##are",
      "contin ##u",
      "suffic ##i",
      "pul ##ch",
      "##edi ##fic",
      "ph ##antas",
      "m ##erc",
      "X ##II",
      "am ##ore",
      "pr ##es",
      "ab ##und",
      "rem ##iss",
      "##h ##ris",
      "pop ##uli",
      "##li ##bus",
      "Jo ##an",
      "##id ##um",
      "pot ##erat",
      "##iss ##ent",
      "##s ##ec",
      "##it ##titur",
      "##in ##um",
      "##on ##um",
      "##ati ##bus",
      "e ##arum",
      "##u ##tionem",
      "dix ##erunt",
      "ost ##ensum",
      "hab ##itu",
      "cons ##ol",
      "suffic ##it",
      "sep ##tim",
      "per ##fic",
      "sacram ##ento",
      "mem ##b",
      "##ps ##it",
      "ter ##tia",
      "f ##rig",
      "##at ##h",
      "sol ##lic",
      "st ##ell",
      "##in ##es",
      "i ##ra",
      "ver ##itate",
      "a ##edific",
      "culp ##a",
      "m ##enti",
      "n ##ub",
      "##es ##ci",
      "pr ##ec",
      "Quar ##to",
      "Dionys ##ius",
      "prim ##i",
      "tem ##per",
      "signific ##atur",
      "##itati ##bus",
      "es ##tis",
      "##r ##orum",
      "fre ##qu",
      "qu ##al",
      "import ##at",
      "##an ##ti",
      "v ##iam",
      "a ##estim",
      "accip ##it",
      "urb ##em",
      "quid ##quid",
      "tot ##am",
      "intel ##lec",
      "dili ##git",
      "##re ##p",
      "lab ##or",
      "P ##a",
      "##ec ##h",
      "ca ##d",
      "##ab ##ilia",
      "accip ##itur",
      "arbit ##ri",
      "po ##li",
      "cognosc ##ere",
      "P ##ot",
      "sc ##and",
      "v ##a",
      "ex ##per",
      "cl ##am",
      "ultim ##um",
      "princip ##aliter",
      "sep ##tem",
      "##s ##it",
      "##an ##im",
      "pl ##ura",
      "bon ##us",
      "sacram ##enta",
      "recip ##i",
      "ben ##edic",
      "m ##yst",
      "##oc ##h",
      "culp ##ae",
      "I ##ob",
      "##itt ##ere",
      "un ##i",
      "contra ##dic",
      "##id ##i",
      "ob ##lig",
      "sum ##p",
      "cor ##dis",
      "l ##ign",
      "sc ##rib",
      "##ra ##h",
      "fili ##os",
      "nost ##ris",
      "exp ##ect",
      "U ##bi",
      "nost ##er",
      "me ##i",
      "ad ##ul",
      "vol ##uit",
      "poss ##umus",
      "me ##am",
      "succ ##ess",
      "I ##ps",
      "##v ##i",
      "su ##orum",
      "h ##i",
      "natur ##alem",
      "sacri ##fic",
      "philosoph ##um",
      "aug ##m",
      "##p ##ic",
      "sum ##itur",
      "tra ##h",
      "exc ##lud",
      "alter ##i",
      "super ##b",
      "princip ##es",
      "Scrip ##tura",
      "nem ##o",
      "T ##ur",
      "I ##X",
      "tem ##pl",
      "inc ##arn",
      "mov ##eri",
      "testim ##onium",
      "occ ##ul",
      "civ ##itate",
      "##av ##i",
      "ag ##ere",
      "CA ##P",
      "disp ##ens",
      "ac ##quir",
      "##ari ##i",
      "sacer ##do",
      "ver ##bi",
      "I ##deo",
      "m ##ur",
      "prae ##f",
      "p ##ublic",
      "##ar ##r",
      "non ##dum",
      "di ##em",
      "vid ##ere",
      "ar ##tific",
      "##erus ##alem",
      "vel ##le",
      "2 ##0",
      "R ##eg",
      "##et ##us",
      "ante ##quam",
      "in ##ordin",
      "intenti ##onem",
      "I ##m",
      "tim ##or",
      "##en ##de",
      "##ul ##ar",
      "ar ##c",
      "##ub ##ern",
      "rec ##ep",
      "inter ##rog",
      "rep ##ut",
      "doctr ##ina",
      "s ##a",
      "quin ##que",
      "conveni ##ens",
      "sci ##endum",
      "##is ##tis",
      "ill ##orum",
      "##O ##N",
      "qu ##arum",
      "N ##e",
      "##un ##di",
      "apost ##oli",
      "mens ##ur",
      "##ec ##umque",
      "ul ##t",
      "##E ##R",
      "diff ##erunt",
      "p ##ort",
      "perf ##ecte",
      "nost ##rum",
      "B ##ed",
      "de ##x",
      "A ##qu",
      "il ##lic",
      "praecep ##tum",
      "coni ##unc",
      "S ##up",
      "m ##alis",
      "n ##esci",
      "aqu ##ae",
      "r ##ecte",
      "##er ##re",
      "re ##liqu",
      "vin ##dic",
      "o ##ri",
      "##es ##tio",
      "##av ##id",
      "am ##oris",
      "ne ##go",
      "susc ##ep",
      "g ##enti",
      "qua ##dam",
      "##ator ##is",
      "sci ##re",
      "d ##er",
      "##T ##I",
      "##an ##tium",
      "post ##quam",
      "##ys ##ic",
      "conc ##ludit",
      "P ##at",
      "g ##ubern",
      "sub ##tra",
      "##eb ##unt",
      "T ##im",
      "##eg ##r",
      "n ##obili",
      "##enti ##us",
      "pass ##ionis",
      "##o ##gn",
      "##e ##unt",
      "op ##ere",
      "eius ##dem",
      "##ul ##am",
      "serv ##i",
      "delect ##atio",
      "cons ##uetud",
      "iusti ##tiam",
      "##l ##o",
      "Ecc ##li",
      "exc ##us",
      "cogni ##tione",
      "matrim ##onium",
      "amb ##ul",
      "##av ##erit",
      "st ##atus",
      "##ir ##et",
      "prim ##us",
      "di ##u",
      "for ##n",
      "Inf ##ern",
      "res ##urg",
      "us ##um",
      "D ##avid",
      "d ##ulc",
      "sign ##a",
      "##elic ##et",
      "mor ##s",
      "caus ##is",
      "def ##ectum",
      "S ##ci",
      "##tic ##a",
      "##en ##a",
      "sol ##is",
      "app ##rop",
      "cr ##uc",
      "nost ##rae",
      "ration ##alis",
      "Am ##b",
      "incor ##rup",
      "##un ##a",
      "vic ##tor",
      "oper ##ationes",
      "Pr ##op",
      "##ac ##tus",
      "Dic ##itur",
      "su ##as",
      "inn ##oc",
      "##om ##p",
      "anim ##alia",
      "indi ##gn",
      "##o ##em",
      "##om ##n",
      "U ##l",
      "##qu ##od",
      "2 ##1",
      "pr ##e",
      "acc ##us",
      "D ##am",
      "ess ##enti",
      "##ess ##it",
      "diff ##ert",
      "virtu ##tibus",
      "cap ##it",
      "corpor ##alis",
      "deb ##emus",
      "p ##eti",
      "r ##ap",
      "##r ##ed",
      "##or ##sum",
      "opin ##io",
      "Sup ##ra",
      "o ##re",
      "gener ##ationem",
      "dix ##erat",
      "##ens ##is",
      "am ##orem",
      "mov ##ens",
      "opp ##onitur",
      "##ab ##unt",
      "##s ##a",
      "Bed ##a",
      "consili ##o",
      "us ##us",
      "ips ##orum",
      "ir ##asc",
      "ul ##tra",
      "Post ##quam",
      "I ##ta",
      "inim ##ic",
      "necess ##itatem",
      "##at ##as",
      "conf ##orm",
      "induc ##it",
      "du ##ae",
      "Quid ##am",
      "f ##un",
      "app ##et",
      "incip ##it",
      "##ab ##antur",
      "is ##tis",
      "b ##l",
      "ali ##ae",
      "st ##at",
      "gaud ##ium",
      "immedi ##ate",
      "n ##equ",
      "cor ##am",
      "ag ##entis",
      "v ##ari",
      "dec ##imum",
      "v ##es",
      "inf ##orm",
      "##quod ##que",
      "h ##or",
      "t ##ui",
      "##ati ##c",
      "Qu ##antum",
      "me ##o",
      "vid ##elicet",
      "##l ##ar",
      "de ##fici",
      "gener ##ationis",
      "fu ##erat",
      "val ##de",
      "S ##al",
      "pot ##erit",
      "assign ##at",
      "ut ##ro",
      "qua ##ecumque",
      "fruc ##tus",
      "An ##ti",
      "commun ##is",
      "mun ##d",
      "ep ##ist",
      "intenti ##o",
      "b ##ib",
      "trans ##f",
      "tu ##am",
      "commun ##i",
      "die ##bus",
      "E ##ph",
      "im ##it",
      "l ##ae",
      "S ##equitur",
      "ad ##or",
      "ha ##ere",
      "interp ##ret",
      "M ##et",
      "desc ##end",
      "dim ##in",
      "qua ##d",
      "ign ##e",
      "aetern ##um",
      "int ##ra",
      "##od ##ec",
      "prop ##onit",
      "fig ##ura",
      "caus ##as",
      "lib ##ert",
      "aetern ##am",
      "mis ##er",
      "frat ##res",
      "deb ##etur",
      "m ##are",
      "inv ##id",
      "poss ##int",
      "ins ##tit",
      "magn ##um",
      "A ##t",
      "fu ##isset",
      "m ##ol",
      "##ens ##us",
      "not ##a",
      "i ##bidem",
      "##tiv ##um",
      "com ##es",
      "divin ##um",
      "rep ##ugn",
      "XX ##V",
      "indiv ##is",
      "potest ##as",
      "Secun ##da",
      "ius ##tific",
      "med ##ic",
      "##m ##us",
      "faci ##at",
      "##ol ##o",
      "vest ##ra",
      "conv ##ert",
      "##un ##git",
      "hab ##eant",
      "nomin ##a",
      "satis ##fac",
      "##l ##em",
      "tur ##p",
      "corrup ##tib",
      "dom ##um",
      "quic ##umque",
      "##ol ##og",
      "Diab ##olus",
      "##em ##os",
      "in ##dic",
      "pr ##ot",
      "commun ##iter",
      "ac ##tibus",
      "Petr ##us",
      "J ##udae",
      "o ##por",
      "is ##ti",
      "pon ##ere",
      "tris ##titia",
      "poss ##ess",
      "##od ##e",
      "imped ##im",
      "S ##ap",
      "##ol ##is",
      "C ##a",
      "n ##ul",
      "s ##yl",
      "##um ##b",
      "p ##urg",
      "t ##alem",
      "exerc ##itus",
      "res ##ist",
      "hon ##est",
      "proph ##e",
      "propor ##tion",
      "Gra ##ec",
      "ad ##j",
      "mod ##is",
      "mis ##it",
      "beatitud ##o",
      "t ##ales",
      "##ci ##li",
      "Qu ##am",
      "leg ##itur",
      "2 ##2",
      "A ##b",
      "mun ##dus",
      "divers ##as",
      "inqu ##ir",
      "pop ##ulum",
      "##an ##gu",
      "sim ##plex",
      "person ##am",
      "##oc ##umque",
      "##ator ##em",
      "m ##itt",
      "consequ ##itur",
      "offic ##ium",
      "lap ##id",
      "In ##t",
      "Eccles ##iam",
      "forn ##ic",
      "t ##ale",
      "Angel ##orum",
      "cogn ##ov",
      "alb ##um",
      "Man ##ifest",
      "des ##er",
      "desc ##rib",
      "hab ##ebat",
      "deb ##eat",
      "Bo ##eti",
      "app ##ell",
      "litter ##a",
      "obs ##id",
      "fut ##ura",
      "##l ##a",
      "deb ##itum",
      "f ##und",
      "##n ##e",
      "##in ##th",
      "An ##tic",
      "f ##on",
      "l ##ar",
      "m ##ili",
      "co ##g",
      "don ##a",
      "t ##ab",
      "prohib ##et",
      "a ##et",
      "prud ##entia",
      "##ab ##us",
      "du ##x",
      "regn ##o",
      "Amb ##ros",
      "perm ##an",
      "mer ##itum",
      "per ##cip",
      "dep ##end",
      "subd ##itur",
      "Dam ##asc",
      "Antic ##hris",
      "n ##asc",
      "Augustin ##um",
      "s ##er",
      "##ci ##am",
      "viv ##ere",
      "sapi ##entiam",
      "p ##an",
      "separ ##ata",
      "fals ##a",
      "##er ##os",
      "ins ##titu",
      "pass ##ione",
      "##ep ##h",
      "consum ##m",
      "mali ##tia",
      "Qua ##estio",
      "cas ##u",
      "s ##omn",
      "bon ##itas",
      "num ##erum",
      "hab ##entes",
      "culp ##am",
      "in ##stru",
      "tu ##o",
      "quan ##dam",
      "super ##bi",
      "##m ##a",
      "mal ##orum",
      "##titud ##inem",
      "quantit ##atem",
      "##emos ##yn",
      "sacerd ##ot",
      "anti ##qu",
      "m ##obil",
      "s ##ae",
      "p ##iet",
      "##ol ##um",
      "##ant ##er",
      "ar ##d",
      "unum ##quodque",
      "poenit ##entiam",
      "A ##eg",
      "h ##uic",
      "special ##iter",
      "Qu ##ando",
      "Io ##an",
      "conveni ##unt",
      "desider ##ium",
      "2 ##3",
      "nost ##ram",
      "##c ##eps",
      "##enti ##as",
      "ob ##l",
      "pun ##i",
      "##ae ##qu",
      "##ass ##e",
      "absol ##ute",
      "futur ##um",
      "##r ##ius",
      "##ac ##ob",
      "abs ##con",
      "ele ##emosyn",
      "recip ##it",
      "secun ##d",
      "creatur ##is",
      "s ##on",
      "expon ##it",
      "proxim ##um",
      "##an ##dam",
      "vid ##e",
      "##em ##ur",
      "mor ##ta",
      "tim ##ore",
      "auctor ##itate",
      "mi ##x",
      "Daemon ##es",
      "hab ##eret",
      "sal ##utis",
      "mem ##bra",
      "Pot ##est",
      "##oem ##ium",
      "natur ##ale",
      "perfec ##tionis",
      "S ##ocr",
      "ele ##v",
      "un ##itatem",
      "Baptism ##um",
      "D ##iv",
      "pers ##ec",
      "##osi ##tis",
      "##urr ##it",
      "aliqu ##ibus",
      "prin ##ceps",
      "tant ##a",
      "##r ##en",
      "##as ##i",
      "matrim ##on",
      "praes ##enti",
      "Th ##om",
      "##tic ##um",
      "ux ##orem",
      "or ##b",
      "ten ##etur",
      "ann ##o",
      "a ##gn",
      "re ##per",
      "venia ##le",
      "##os ##um",
      "tan ##quam",
      "carn ##e",
      "doctr ##inam",
      "##r ##ibus",
      "ul ##terius",
      "##an ##ae",
      "princip ##iis",
      "ordin ##antur",
      "lib ##erum",
      "civ ##itas",
      "Met ##aph",
      "Ambros ##ius",
      "X ##III",
      "st ##ul",
      "gra ##dus",
      "2 ##4",
      "int ##end",
      "Manifest ##um",
      "s ##yn",
      "fam ##ili",
      "appreh ##ens",
      "ex ##h",
      "seips ##o",
      "poenit ##entia",
      "multitud ##o",
      "ex ##is",
      "secun ##dam",
      "super ##f",
      "per ##d",
      "quae ##libet",
      "##um ##p",
      "##ur ##i",
      "##abil ##es",
      "##U ##S",
      "contrari ##et",
      "Aristot ##eles",
      "quo ##libet",
      "Aeg ##yp",
      "judic ##ium",
      "T ##unc",
      "ord ##inis",
      "respond ##et",
      "differ ##entiam",
      "accep ##it",
      "b ##re",
      "dir ##ig",
      "Ioann ##em",
      "pac ##em",
      "##eper ##unt",
      "f ##o",
      "bon ##itatem",
      "anim ##alibus",
      "ob ##tin",
      "##em ##or",
      "g ##entes",
      "##e ##ver",
      "##ti ##is",
      "##ol ##v",
      "##end ##is",
      "person ##arum",
      "disp ##ositio",
      "cr ##im",
      "pos ##uerunt",
      "##esti ##g",
      "miseric ##ordia",
      "utro ##que",
      "##um ##entum",
      "E ##z",
      "##iss ##imum",
      "v ##e",
      "man ##s",
      "defini ##tione",
      "##er ##ed",
      "du ##odec",
      "Ioann ##es",
      "vid ##it",
      "consequ ##enter",
      "form ##as",
      "##ab ##untur",
      "mens ##ura",
      "a ##er",
      "l ##ig",
      "ma ##ius",
      "Con ##tra",
      "Pro ##oemium",
      "##us ##tr",
      "d ##omo",
      "tra ##ct",
      "d ##orm",
      "h ##ost",
      "##iss ##ima",
      "imp ##edi",
      "XX ##I",
      "##ic ##am",
      "tr ##ium",
      "##ar ##d",
      "con ##n",
      "##ot ##h",
      "re ##tin",
      "adm ##ir",
      "elem ##enta",
      "viti ##um",
      "hyp ##ost",
      "##ra ##v",
      "##ion ##um",
      "praedic ##tis",
      "Baptism ##us",
      "O ##port",
      "##ed ##itur",
      "J ##ob",
      "min ##or",
      "tan ##git",
      "oper ##atione",
      "aux ##ilium",
      "B ##al",
      "##ti ##l",
      "or ##n",
      "ess ##entiae",
      "pat ##ern",
      "doc ##et",
      "ass ##imil",
      "episcop ##us",
      "##U ##M",
      "##ra ##que",
      "ar ##ch",
      "praedic ##atur",
      "d ##ata",
      "Cor ##inth",
      "##id ##a",
      "qui ##libet",
      "Ali ##a",
      "de ##li",
      "XI ##V",
      "##abil ##em",
      "manifest ##e",
      "t ##alia",
      "praes ##ens",
      "cr ##uci",
      "abs ##tin",
      "cred ##ere",
      "##ia ##c",
      "conf ##it",
      "##as ##ti",
      "poss ##ent",
      "oc ##tav",
      "termin ##us",
      "ign ##em",
      "multitud ##inem",
      "virg ##in",
      "i ##uxta",
      "##end ##us",
      "sp ##em",
      "du ##os",
      "necess ##itas",
      "N ##ull",
      "R ##ob",
      "u ##titur",
      "Abrah ##am",
      "d ##em",
      "conc ##lud",
      "n ##arr",
      "Ies ##u",
      "ma ##gnific",
      "##ativ ##e",
      "Domin ##us",
      "hab ##emus",
      "univers ##aliter",
      "O ##rig",
      "du ##plic",
      "gener ##atione",
      "##er ##ium",
      "ex ##i",
      "dec ##lar",
      "Boeti ##us",
      "##ec ##tis",
      "con ##d",
      "##n ##us",
      "##ar ##entur",
      "trans ##l",
      "ut ##raque",
      "vel ##oc",
      "beatitud ##inem",
      "per ##ven",
      "##en ##es",
      "##ec ##it",
      "att ##enditur",
      "dis ##tr",
      "exis ##tim",
      "med ##ia",
      "aux ##ili",
      "##I ##S",
      "exp ##ress",
      "Ad ##am",
      "num ##quid",
      "vin ##um",
      "ac ##tionem",
      "simil ##is",
      "accid ##entia",
      "##ari ##is",
      "mend ##aci",
      "incorrup ##tib",
      "f ##em",
      "corpor ##ali",
      "per ##fici",
      "pros ##per",
      "##n ##o",
      "pa ##st",
      "Pl ##at",
      "A ##ct",
      "serm ##o",
      "##iv ##a",
      "iudic ##io",
      "Iudae ##orum",
      "hon ##orem",
      "N ##ota",
      "##que ##b",
      "natur ##alibus",
      "##itud ##inis",
      "human ##um",
      "caeles ##tis",
      "qu ##ali",
      "##id ##erunt",
      "ex ##s",
      "E ##n",
      "Anti ##och",
      "occ ##up",
      "##us ##a",
      "pecc ##are",
      "gl ##ad",
      "##am ##en",
      "mul ##tos",
      "Cons ##equ",
      "sc ##it",
      "don ##ec",
      "resurr ##ectionem",
      "##al ##itatis",
      "prim ##ae",
      "im ##ago",
      "faci ##em",
      "ten ##eb",
      "alic ##ujus",
      "Evang ##eli",
      "cont ##emp",
      "arbitr ##ium",
      "p ##unc",
      "exerc ##itu",
      "a ##bi",
      "o ##v",
      "divin ##o",
      "Rob ##er",
      "sacerd ##os",
      "o ##m",
      "sol ##vit",
      "##es ##tis",
      "##os ##ci",
      "vir ##es",
      "oper ##ari",
      "exter ##ius",
      "t ##ang",
      "ad ##dit",
      "n ##ativ",
      "cor ##r",
      "cons ##ist",
      "noc ##te",
      "oper ##is",
      "rel ##atio",
      "discip ##ulis",
      "n ##atus",
      "##p ##e",
      "sex ##tum",
      "##enti ##is",
      "pecc ##ator",
      "ius ##tum",
      "voc ##atur",
      "Qu ##in",
      "effic ##i",
      "advers ##us",
      "singul ##ar",
      "sur ##sum",
      "##oph ##yl",
      "##ti ##ci",
      "M ##ar",
      "##ess ##um",
      "creatur ##am",
      "praem ##ium",
      "##p ##ici",
      "##tion ##um",
      "discip ##uli",
      "##ili ##us",
      "X ##L",
      "j ##uxta",
      "ex ##al",
      "inqu ##it",
      "or ##atio",
      "##ativ ##am",
      "pers ##ever",
      "divers ##itatem",
      "intr ##od",
      "e ##g",
      "reg ##i",
      "dign ##itatem",
      "De ##ut",
      "sangu ##inem",
      "##tiv ##ae",
      "cognosc ##itur",
      "vis ##us",
      "a ##quam",
      "su ##ff",
      "##ra ##es",
      "2 ##5",
      "j ##ur",
      "p ##ap",
      "qui ##esc",
      "nam ##que",
      "dilig ##ere",
      "compar ##ationem",
      "defini ##tio",
      "memor ##ia",
      "a ##ere",
      "##un ##ci",
      "util ##itatem",
      "amici ##tia",
      "sapi ##ens",
      "fac ##ult",
      "poss ##id",
      "Domin ##i",
      "##yr ##ann",
      "ve ##hem",
      "be ##atus",
      "concupisc ##entia",
      "Consequ ##enter",
      "I ##ud",
      "##uc ##h",
      "faci ##le",
      "indig ##et",
      "individ ##u",
      "Oport ##et",
      "##E ##S",
      "vir ##o",
      "consider ##are",
      "H ##is",
      "a ##gitur",
      "hypost ##as",
      "H ##ab",
      "fac ##to",
      "fruc ##tum",
      "##u ##isse",
      "per ##veni",
      "##ri ##que",
      "accid ##ent",
      "asc ##end",
      "reman ##et",
      "##u ##isset",
      "in ##gen",
      "##ab ##b",
      "##ed ##unt",
      "natur ##ales",
      "cont ##emn",
      "super ##ius",
      "univers ##alis",
      "eam ##dem",
      "##er ##ens",
      "##ic ##is",
      "par ##tium",
      "ad ##hib",
      "##stan ##tia",
      "A ##c",
      "S ##ep",
      "t ##alibus",
      "Pr ##imum",
      "Angel ##os",
      "nim ##is",
      "##ari ##am",
      "fac ##ti",
      "poss ##ibilis",
      "sanc ##tis",
      "t ##yrann",
      "##iti ##um",
      "dol ##or",
      "##raes ##ent",
      "##id ##ium",
      "dic ##ebat",
      "In ##ter",
      "lib ##eri",
      "dim ##ens",
      "jus ##titiae",
      "The ##ophyl",
      "Theophyl ##actus",
      "comp ##let",
      "human ##i",
      "##a ##st",
      "##os ##uit",
      "pertin ##ere",
      "superb ##ia",
      "H ##eb",
      "##a ##z",
      "adul ##ter",
      "rep ##raesent",
      "##os ##us",
      "qua ##erit",
      "loqu ##endo",
      "cor ##on",
      "alter ##o",
      "sec ##um",
      "quali ##bet",
      "D ##i",
      "voc ##em",
      "##quis ##que",
      "vid ##emus",
      "propri ##o",
      "cogni ##tionis",
      "cup ##id",
      "dic ##eret",
      "cogn ##osci",
      "priv ##atio",
      "##ot ##o",
      "vi ##x",
      "re ##qui",
      "Ul ##terius",
      "##tor ##es",
      "##ic ##o",
      "pr ##eti",
      "caus ##atur",
      "long ##e",
      "vir ##um",
      "##in ##g",
      "qua ##eruntur",
      "sequ ##eretur",
      "met ##aph",
      "bon ##itatis",
      "##iti ##ae",
      "imm ##o",
      "##u ##tione",
      "determin ##atum",
      "##c ##um",
      "par ##tis",
      "exc ##edit",
      "col ##lig",
      "al ##t",
      "red ##emp",
      "attr ##ib",
      "cel ##ebr",
      "##el ##li",
      "ca ##dit",
      "##av ##erat",
      "ar ##t",
      "nost ##ro",
      "dec ##em",
      "Matth ##ae",
      "diffic ##ult",
      "m ##us",
      "sing ##ulis",
      "Baptism ##o",
      "I ##st",
      "##t ##ri",
      "ag ##ente",
      "mov ##entur",
      "in ##est",
      "prae ##ex",
      "Ap ##oc",
      "dic ##ebant",
      "anim ##i",
      "app ##lic",
      "imm ##obil",
      "mirac ##ula",
      "##u ##xit",
      "merit ##o",
      "ar ##b",
      "delect ##ationem",
      "##gress ##us",
      "##s ##e",
      "##it ##orum",
      "post ##modum",
      "resp ##icit",
      "quos ##dam",
      "H ##ebr",
      "J ##es",
      "##tin ##c",
      "prophet ##ae",
      "at ##tin",
      "mortu ##us",
      "praemiss ##is",
      ") ##,",
      "ignor ##antia",
      "##en ##i",
      "##an ##tiae",
      "##ul ##ae",
      "av ##ari",
      "un ##itas",
      "sent ##entiam",
      "c ##ec",
      "ac ##tiva",
      "cap ##tiv",
      "##i ##hil",
      "in ##h",
      "commun ##em",
      "spiritu ##ali",
      "fu ##erint",
      "rem ##ed",
      "glor ##ios",
      "pen ##itus",
      "de ##inde",
      "Ma ##gis",
      "##ec ##um",
      "ut ##rius",
      "pati ##tur",
      "pu ##er",
      "ev ##id",
      "distingu ##untur",
      "##ter ##et",
      "loqu ##i",
      "scand ##al",
      "##iss ##a",
      "serv ##us",
      "lar ##g",
      "deb ##uit",
      "tri ##pliciter",
      "conj ##unc",
      "utrius ##que",
      "dic ##entes",
      "f ##ra",
      "##et ##h",
      "##u ##pp",
      "loc ##a",
      "S ##unt",
      "r ##en",
      "##r ##as",
      "Aqu ##ino",
      "S ##pir",
      "##in ##v",
      "##es ##aur",
      "##di ##u",
      "inter ##ius",
      "##l ##am",
      "Qu ##asi",
      "sol ##o",
      "pro ##x",
      "man ##ibus",
      "i ##ac",
      "##as ##ph",
      "##eli ##bus",
      "nol ##ite",
      "\" ##.",
      "##ac ##ia",
      "fid ##eles",
      "jus ##titia",
      "##it ##em",
      "##ion ##i",
      "comp ##l",
      "loc ##is",
      "defic ##it",
      "prae ##v",
      "res ##titu",
      "univers ##ali",
      "aetern ##o",
      "praecep ##to",
      "sangu ##inis",
      "intellig ##atur",
      "ist ##ud",
      "M ##or",
      "##an ##dem",
      "exp ##rim",
      "sec ##ur",
      "mat ##er",
      "sangu ##ine",
      "arbitri ##i",
      "N ##ot",
      "in ##ha",
      "m ##ac",
      "sem ##in",
      "2 ##6",
      "A ##lex",
      "m ##entem",
      "ra ##dic",
      "con ##dem",
      "frequ ##enter",
      "con ##stat",
      "perfec ##ti",
      "futur ##o",
      "##tic ##e",
      "tu ##us",
      "vis ##io",
      "coni ##ug",
      "##p ##ot",
      "qu ##ant",
      "##im ##i",
      "ut ##p",
      "divers ##ae",
      "ped ##es",
      "##ari ##ae",
      "s ##abb",
      "Iudae ##i",
      "provid ##entia",
      "Orig ##enes",
      "qu ##ocumque",
      "hum ##ili",
      "mal ##edic",
      "gener ##a",
      "##un ##ic",
      "contrari ##o",
      "##ic ##itur",
      "vol ##up",
      "rep ##rob",
      "unus ##quisque",
      "##lo ##gis",
      "##id ##o",
      "post ##erius",
      "##I ##T",
      "##al ##itate",
      "ist ##o",
      "##ur ##sus",
      "##osi ##tiones",
      "ejus ##dem",
      "glor ##ific",
      "intellectu ##alis",
      "p ##etit",
      "##as ##ch",
      "##ac ##ter",
      "quantit ##as",
      "Jo ##ann",
      "particul ##ar",
      "phantas ##m",
      "Prop ##ter",
      "bl ##asph",
      "##os ##eph",
      "quae ##st",
      "##issim ##e",
      "lux ##ur",
      "v ##ox",
      "##itat ##um",
      "##titud ##o",
      "ration ##i",
      "Q ##U",
      "imp ##edit",
      "proxim ##i",
      "2 ##7",
      "cr ##edit",
      "soc ##iet",
      "fun ##dam",
      "V ##ir",
      "h ##om",
      "##omin ##us",
      "prob ##atur",
      "nov ##o",
      "sangu ##is",
      "distinc ##tio",
      "divers ##itas",
      "##und ##us",
      "##eti ##ps",
      "##en ##um",
      "quaes ##tio",
      "Scriptur ##ae",
      "N ##um",
      "r ##og",
      "s ##il",
      "##t ##ent",
      "du ##b",
      "##aci ##am",
      "doctr ##inae",
      "ips ##os",
      "perf ##ectam",
      "dev ##o",
      "g ##entium",
      "##ativ ##um",
      "th ##esaur",
      "syl ##logis",
      "M ##ul",
      "spiritu ##alem",
      "##in ##sec",
      "aff ##ectum",
      "vi ##tia",
      "termin ##um",
      "intenti ##one",
      "auctor ##itatem",
      "th ##e",
      "Sci ##endum",
      "c ##am",
      "ca ##v",
      "vid ##eatur",
      "alter ##a",
      "origin ##ale",
      "##ati ##um",
      "ini ##ur",
      "re ##vers",
      "Ies ##um",
      "qui ##et",
      "##ativ ##ae",
      "poenit ##entiae",
      "mar ##t",
      "ca ##eter",
      "anim ##alis",
      "super ##fici",
      "fl ##um",
      "##ti ##f",
      "##at ##eria",
      "##un ##gitur",
      "quar ##to",
      "maior ##em",
      "pro ##fic",
      "Ph ##ysic",
      "D ##ec",
      "v ##im",
      "per ##vers",
      "mal ##us",
      "reg ##e",
      "imm ##ateria",
      "eff ##ectu",
      "misericordi ##am",
      "H ##il",
      "##or ##ia",
      "circum ##cis",
      "##ti ##ter",
      "in ##gr",
      "compar ##atur",
      "qu ##alis",
      "in ##g",
      "sensibili ##bus",
      "introd ##uc",
      "blasph ##em",
      "corrup ##tio",
      "eccles ##ias",
      "philosoph ##i",
      "univers ##i",
      "oc ##ulos",
      "uti ##que",
      "##N ##T",
      "##ul ##aris",
      "##u ##ven",
      "ultim ##o",
      "Sanc ##ti",
      "utp ##ote",
      "p ##e",
      "v ##as",
      "##il ##es",
      "vel ##it",
      "cre ##ata",
      "sem ##p",
      "fal ##l",
      "tr ##ibu",
      "inferi ##oribus",
      "f ##erv",
      "ex ##aud",
      "fid ##el",
      "desc ##endit",
      "maj ##or",
      "pat ##ria",
      "##ei ##un",
      "J ##erusalem",
      "c ##urr",
      "l ##e",
      "##b ##at",
      "abst ##rac",
      "semp ##iter",
      "philosoph ##ia",
      "m ##aris",
      "##id ##us",
      "de ##stru",
      "prophet ##a",
      "oc ##ulis",
      "##on ##ia",
      "imp ##ugn",
      "divin ##i",
      "caeles ##tia",
      "scrip ##tum",
      "c ##ale",
      "c ##ert",
      "##ol ##ym",
      "cap ##ite",
      "dec ##lin",
      "templ ##um",
      "e ##lect",
      "Ter ##tia",
      "##s ##c",
      "anim ##o",
      "pon ##tific",
      "leg ##i",
      "##ti ##as",
      "def ##in",
      "ten ##ebr",
      "dil ##ectio",
      "rec ##ogn",
      "vis ##ione",
      "medi ##ante",
      "fi ##eret",
      "respon ##sio",
      "neg ##lig",
      "adh ##a",
      "r ##etr",
      "##d ##ec",
      "##en ##is",
      "divin ##itatis",
      "fid ##elium",
      "obs ##c",
      "##re ##xit",
      "tu ##ae",
      "disp ##ositionem",
      "sec ##ret",
      "att ##end",
      "pul ##c",
      "post ##eri",
      "sub ##lim",
      "u ##ir",
      "##y ##ri",
      "fili ##is",
      "der ##iv",
      "##d ##u",
      "dim ##itt",
      "Ph ##aris",
      "lingu ##a",
      "i ##eiun",
      "##er ##atur",
      "##at ##enus",
      "sens ##ibilia",
      "relig ##ionis",
      "r ##ect",
      "##enti ##ss",
      "gener ##atur",
      "el ##eg",
      "ev ##ang",
      "fortitud ##o",
      "d ##ia",
      "proced ##ere",
      "omni ##pot",
      "##ra ##vit",
      "##tiv ##am",
      "inveni ##untur",
      "vid ##ens",
      "pon ##i",
      "del ##ic",
      "nov ##um",
      "conveni ##enter",
      "##U ##T",
      "##ol ##unt",
      "extr ##insec",
      "litter ##am",
      "##i ##entes",
      "pl ##ant",
      "sem ##el",
      "Not ##andum",
      "##ar ##dus",
      "##ov ##it",
      "id ##ol",
      "2 ##8",
      "sem ##ine",
      "inv ##is",
      "creatur ##as",
      "Pharis ##ae",
      "h ##ora",
      "##us ##tra",
      "cons ##enti",
      "null ##am",
      "supp ##ositum",
      "##ior ##es",
      "sac ##ra",
      "inferi ##ores",
      "R ##em",
      "lib ##ri",
      "ultim ##a",
      "magn ##itudinem",
      "attribu ##itur",
      "C ##uius",
      "##g ##a",
      "specia ##li",
      "irr ##ation",
      "r ##edi",
      "ref ##ertur",
      "tem ##p",
      "rep ##ar",
      "acc ##ed",
      "##li ##v",
      "pr ##ol",
      "vis ##um",
      "dir ##ecte",
      "nun ##ti",
      "S ##en",
      "in ##stanti",
      "prop ##osito",
      "cl ##eric",
      "N ##ihil",
      "int ##ro",
      "pu ##eri",
      "##os ##iti",
      "imp ##le",
      "volunt ##ati",
      "multitud ##ine",
      "Evang ##elis",
      "veter ##is",
      "ca ##ec",
      "aff ##ectus",
      "ac ##tiones",
      "sp ##ha",
      "maxim ##a",
      "##ic ##h",
      "disp ##ut",
      "frat ##er",
      "p ##asc",
      "distin ##g",
      "not ##andum",
      "sent ##entia",
      "testam ##enti",
      "##C ##C",
      "reg ##es",
      "hab ##ebant",
      "rem ##o",
      "sem ##en",
      "mov ##eatur",
      "consequ ##untur",
      "pon ##untur",
      "nut ##ri",
      "m ##ari",
      "##ot ##us",
      "Moys ##es",
      "v ##otum",
      "sp ##e",
      "diviti ##as",
      "##ili ##bus",
      "##osi ##tionis",
      "cur ##am",
      "com ##ed",
      "sens ##ibilis",
      "##di ##x",
      "##iti ##bus",
      "##ex ##tum",
      "S ##ar",
      "n ##up",
      "##ui ##que",
      "reg ##im",
      "ration ##ibus",
      "im ##min",
      "princip ##ali",
      "nul ##li",
      "##inv ##icem",
      "Alex ##and",
      "condem ##n",
      "faci ##ens",
      "univers ##ale",
      "imag ##inem",
      "sal ##tem",
      "consider ##ari",
      "aur ##e",
      "dil ##ectionis",
      "##u ##erat",
      "de ##struc",
      "dubit ##ationem",
      "depend ##et",
      "Damasc ##enus",
      "consci ##entia",
      "in ##quam",
      "comm ##ut",
      "des ##per",
      "spiritu ##alibus",
      "sacram ##entis",
      "aud ##it",
      "##em ##per",
      "pecc ##atores",
      "pa ##uci",
      "aetern ##ae",
      "u ##m",
      "pr ##edic",
      "##end ##ae",
      "person ##is",
      "##omm ##unic",
      "princip ##ibus",
      "comp ##ositum",
      "caus ##at",
      "mat ##hem",
      "fid ##elis",
      "mil ##it",
      "praes ##upp",
      "Il ##lud",
      "c ##ito",
      "##p ##ectu",
      "ubi ##que",
      "sa ##git",
      "##ess ##us",
      "##ari ##e",
      "##it ##ti",
      "in ##j",
      "un ##ic",
      "al ##l",
      "praes ##ci",
      "ni ##g",
      "cognosc ##at",
      "spiritu ##alia",
      "exal ##t",
      "g ##em",
      "faci ##li",
      "respon ##dit",
      "Ez ##ech",
      "t ##or",
      "v ##iae",
      "##ac ##ulum",
      "ter ##tiam",
      "comm ##in",
      "comm ##emor",
      "contin ##etur",
      "delect ##ationes",
      "nov ##a",
      "duodec ##im",
      "##n ##um",
      "loc ##utus",
      "tot ##us",
      "rev ##oc",
      "b ##r",
      "ad ##op",
      "propri ##is",
      "us ##ur",
      "glor ##i",
      "tim ##orem",
      "tan ##dem",
      "##g ##ere",
      "pr ##ac",
      "aliqu ##os",
      "leg ##es",
      "##ibili ##um",
      "lum ##ine",
      "pan ##em",
      "conf ##us",
      "determin ##ata",
      "cuius ##libet",
      "ded ##uc",
      "Ips ##e",
      "vir ##ibus",
      "fili ##orum",
      "occ ##is",
      "exempl ##o",
      "quantit ##atis",
      "fra ##ud",
      "##o ##per",
      "pa ##x",
      "infid ##el",
      "Evangelis ##ta",
      "du ##abus",
      "contra ##h",
      "mal ##os",
      "intellig ##entia",
      "rep ##reh",
      "Pet ##ri",
      "substanti ##is",
      "alb ##ed",
      "S ##im",
      "##l ##iter",
      "##er ##ibus",
      "aff ##lic",
      "( ##§",
      "E ##m",
      "am ##at",
      "err ##or",
      "peric ##ulum",
      "##.. ##.",
      "c ##u",
      "quo ##ti",
      "imp ##rob",
      "h ##inc",
      "ex ##ig",
      "pat ##res",
      "spir ##it",
      "perf ##ectus",
      "Ap ##ost",
      "##c ##ia",
      "##im ##ode",
      "Qu ##are",
      "superior ##i",
      "summ ##um",
      "sanc ##ta",
      "g ##entibus",
      "##u ##am",
      "pra ##v",
      "fr ##ui",
      "fl ##uv",
      "prov ##oc",
      "Baptism ##i",
      "septim ##um",
      "per ##venit",
      "##ent ##u",
      "##ens ##ionem",
      "loc ##i",
      "r ##ecta",
      "##an ##os",
      "cr ##ud",
      "sequ ##untur",
      "val ##et",
      "host ##es",
      "C ##ar",
      "##end ##unt",
      "oper ##ationis",
      "civ ##es",
      "supp ##lic",
      "hos ##tium",
      "pac ##is",
      "subtra ##h",
      "t ##rip",
      "##and ##us",
      "##u ##is",
      "##u ##ere",
      "nomin ##is",
      "obs ##equ",
      "fin ##es",
      "substanti ##as",
      "adv ##entum",
      "##ens ##i",
      "vir ##go",
      "bon ##os",
      "ceter ##is",
      "ang ##elic",
      "cruci ##f",
      "cont ##ri",
      "conc ##ed",
      "ven ##ire",
      "l ##iter",
      "de ##orsum",
      "##ab ##und",
      "vid ##ebatur",
      "sol ##emn",
      "dex ##ter",
      "Qu ##omodo",
      "( ##...",
      "ad ##di",
      "divers ##imode",
      "col ##or",
      "Ali ##i",
      "Diab ##oli",
      "(... ##)",
      "t ##endit",
      "##ul ##ari",
      "par ##um",
      "anim ##alium",
      "accipi ##atur",
      "superf ##l",
      "man ##um",
      "effic ##itur",
      "condi ##tionem",
      "asc ##endit",
      "unic ##uique",
      "##on ##ibus",
      "##iv ##i",
      "apostol ##orum",
      "v ##estim",
      "comp ##et",
      "perfic ##itur",
      "per ##i",
      "proc ##ur",
      "dil ##ectionem",
      "disc ##re",
      "mil ##ites",
      "requir ##it",
      "augm ##entum",
      "H ##uius",
      "vol ##ens",
      ". ##-",
      "inf ##us",
      "ar ##gu",
      "pres ##b",
      "l ##o",
      "sanc ##tit",
      "cael ##orum",
      "exp ##edi",
      "vest ##rum",
      "compar ##atione",
      "f ##av",
      "##ir ##ent",
      "##ab ##is",
      "##ass ##et",
      "prom ##p",
      "distinc ##tionem",
      "Omn ##e",
      "relinqu ##itur",
      "##n ##i",
      "sacerdot ##es",
      "3 ##0",
      "pot ##erant",
      "princip ##atus",
      "0 ##5",
      "en ##unci",
      "voc ##at",
      "vul ##n",
      "haere ##tic",
      "spiritu ##aliter",
      "deli ##ber",
      "f ##ab",
      "Ecc ##l",
      "quic ##quid",
      "dep ##ut",
      "tab ##ern",
      "t ##ol",
      "pulch ##r",
      "approp ##inqu",
      "anim ##as",
      "aequ ##aliter",
      "ann ##unti",
      "den ##omin",
      "impedim ##entum",
      "C ##omm",
      "##tr ##ans",
      "ven ##er",
      "##ath ##ol",
      "dic ##etur",
      "sequ ##i",
      "tempor ##alia",
      "praec ##edit",
      "grav ##ius",
      "urb ##is",
      "CAP ##UT",
      "##ud ##i",
      "##ens ##a",
      "orig ##inem",
      "perc ##us",
      "##ut ##o",
      "ad ##veni",
      "ill ##ae",
      "prae ##b",
      "R ##ex",
      "##X ##V",
      "ali ##m",
      "resurr ##ectionis",
      "me ##is",
      "app ##e",
      "Omn ##is",
      "felic ##itas",
      "O ##st",
      "d ##ecip",
      "##f ##aci",
      "praedic ##tam",
      "Iudae ##is",
      "scandal ##um",
      "##s ##u",
      "contin ##et",
      "Evang ##elium",
      "patri ##arch",
      "hom ##ic",
      "the ##olog",
      "praes ##entia",
      "##ol ##it",
      "co ##epit",
      "luc ##em",
      "##pp ##e",
      "corpor ##alem",
      "nomin ##at",
      "cael ##est",
      "Ex ##od",
      "discip ##lin",
      "episcop ##i",
      "##ag ##inta",
      "z ##el",
      "mil ##lia",
      "a ##eris",
      "co ##oper",
      "Ad ##h",
      "P ##oss",
      "b ##eat",
      "##or ##ium",
      "Fr ##anc",
      "##e ##as",
      "am ##ar",
      "voc ##e",
      "cast ##ra",
      "L ##e",
      "##et ##a",
      "##al ##og",
      "imp ##ress",
      "Un ##a",
      "conf ##id",
      "Il ##le",
      "trip ##lex",
      "pl ##eb",
      "jus ##titiam",
      "incor ##por",
      "p ##isc",
      "subi ##ecti",
      "appeti ##tum",
      "beatitud ##inis",
      "exterior ##i",
      "subsist ##ens",
      "Int ##el",
      "##t ##rum",
      "eff ##ec",
      "occ ##urr",
      "caeles ##tium",
      "R ##e",
      "##as ##ci",
      "##O ##R",
      "ad ##duc",
      "ac ##tione",
      "corpor ##alibus",
      "fl ##ag",
      "quas ##dam",
      "imm ##ort",
      "Gen ##es",
      "interpret ##atur",
      "mor ##alis",
      "vis ##ionem",
      "mens ##uram",
      "S ##uper",
      "ex ##ec",
      "opp ##osita",
      "distingu ##itur",
      "ang ##us",
      "suffici ##enter",
      "ex ##plic",
      "##end ##at",
      "h ##od",
      "##p ##ublic",
      "ac ##tionis",
      "vid ##eri",
      "gr ##atis",
      "rec ##ed",
      "en ##tis",
      "epist ##ola",
      "viv ##it",
      "hon ##ore",
      "suffic ##iens",
      "serm ##one",
      "Pa ##ulus",
      "B ##ene",
      "H ##er",
      "##eb ##itur",
      "conver ##titur",
      "essenti ##aliter",
      "Adh ##uc",
      "cons ##ul",
      "me ##ae",
      "ext ##endit",
      "e ##duc",
      "##en ##n",
      "par ##i",
      "sub ##ito",
      "pers ##equ",
      "consider ##at",
      "##enti ##o",
      "mis ##eri",
      "proph ##eti",
      "saec ##uli",
      "ten ##et",
      "volup ##t",
      "XI ##X",
      "Tur ##c",
      "n ##atum",
      "##d ##ibus",
      "sacrific ##ium",
      "a ##st",
      "i ##ram",
      "##un ##dum",
      "hab ##eri",
      "vid ##i",
      "mov ##ere",
      "intellec ##tiva",
      "ess ##endi",
      "Con ##tin",
      "benefic ##ium",
      "misericordi ##ae",
      "f ##estin",
      "o ##le",
      "##us ##c",
      "prae ##st",
      "##inis ##tr",
      "od ##io",
      "M ##arc",
      "ins ##id",
      "constit ##uit",
      "A ##ut",
      "sp ##l",
      "particip ##ationem",
      "l ##i",
      "od ##ium",
      "arm ##is",
      "bre ##v",
      "pos ##ita",
      "Eph ##es",
      "morta ##li",
      "Quin ##to",
      "##ati ##tud",
      "obsc ##ur",
      "B ##ab",
      "t ##ene",
      "cons ##ue",
      "fac ##eret",
      "signific ##ant",
      "##l ##ae",
      "##d ##in",
      "##ic ##umque",
      "perfec ##tione",
      "praeter ##m",
      "ann ##os",
      "meli ##or",
      "L ##c",
      "##el ##inqu",
      "cl ##aus",
      "Angel ##o",
      "eccles ##iae",
      "exc ##ommunic",
      "mendaci ##um",
      "##er ##ci",
      "##us ##que",
      "ar ##tic",
      "XV ##I",
      "3 ##2",
      "per ##trans",
      "##ti ##g",
      "diffic ##ile",
      "##t ##ris",
      "ali ##arum",
      "num ##er",
      "##il ##em",
      "int ##eg",
      "imp ##et",
      "ist ##orum",
      "plur ##imum",
      "prop ##on",
      "cl ##av",
      "arg ##um",
      "c ##ant",
      "##im ##is",
      "pro ##veni",
      "ver ##am",
      "fug ##i",
      "sol ##et",
      "post ##ul",
      "sem ##etips",
      "fr ##ustra",
      "char ##acter",
      "Abrah ##ae",
      "Quam ##vis",
      "distr ##ibu",
      "propri ##ae",
      "imper ##ium",
      "subi ##ungit",
      "plen ##a",
      "##t ##arum",
      "Ecc ##e",
      "d ##atum",
      "cor ##rig",
      "super ##abund",
      "comm ##iss",
      "faci ##e",
      "exc ##ed",
      "urb ##e",
      "veter ##i",
      "inter ##f",
      "magn ##o",
      "vid ##entes",
      "serv ##it",
      "err ##orem",
      "trans ##it",
      "incon ##tin",
      "remed ##ium",
      "S ##ex",
      "c ##ura",
      "per ##duc",
      "divers ##ific",
      "ostend ##ere",
      "instrum ##entum",
      "sic ##c",
      "ab ##l",
      "intellig ##ibiles",
      "def ##ectu",
      "reduc ##itur",
      "merc ##ed",
      "##e ##tic",
      "divin ##itus",
      "discip ##ulos",
      "11 ##3",
      "fort ##un",
      "h ##ist",
      "qu ##alitas",
      "occ ##ult",
      "cul ##tum",
      "dil ##ectione",
      "superior ##ibus",
      "line ##a",
      "Ph ##ili",
      "Hil ##arius",
      "per ##eg",
      "##ud ##o",
      "oc ##uli",
      "ultim ##us",
      "myst ##erium",
      "2 ##9",
      "##er ##imus",
      "vel ##ut",
      "spiritu ##ales",
      "viv ##ific",
      "seips ##am",
      "Quae ##dam",
      "en ##te",
      "nov ##it",
      "mali ##tiam",
      "ac ##quis",
      "cons ##angu",
      "##oqu ##in",
      "consider ##atur",
      "aff ##ectu",
      "relig ##ios",
      "spl ##end",
      "I ##er",
      "P ##asch",
      "i ##ub",
      "con ##st",
      "Bab ##yl",
      "##am ##ini",
      "pro ##venit",
      "hos ##tibus",
      "bell ##um",
      "princip ##alis",
      "ar ##te",
      "pros ##equitur",
      "pers ##u",
      "sus ##tent",
      "divis ##ionem",
      "##ic ##hil",
      "ver ##sus",
      "mon ##ach",
      "C ##iv",
      "##in ##ibus",
      "mor ##e",
      "pauper ##t",
      "Ne ##que",
      "prophe ##tia",
      "vel ##let",
      "ar ##s",
      "##tim ##o",
      "dec ##ep",
      "termin ##atur",
      "ux ##or",
      "qu ##ot",
      "un ##io",
      "arm ##a",
      "auxili ##o",
      "I ##bidem",
      "##end ##as",
      "oper ##um",
      "subj ##ectum",
      "optim ##um",
      "abscon ##d",
      "s ##ti",
      "sp ##ei",
      "ordin ##ata",
      "sus ##p",
      "oc ##ulus",
      "design ##atur",
      "##um ##er",
      "natur ##alia",
      "specie ##bus",
      "XV ##III",
      "st ##are",
      "human ##is",
      "elem ##entorum",
      "tac ##tus",
      "Sal ##om",
      "B ##ern",
      "##t ##erea",
      "##I ##A",
      "aliqu ##as",
      "di ##gni",
      "imp ##on",
      "sup ##rem",
      "opin ##iones",
      "prim ##is",
      "an ##t",
      "dilig ##enter",
      "singul ##aria",
      "ben ##ign",
      "cunc ##ta",
      "3 ##3",
      "r ##ob",
      "bon ##itate",
      "virtu ##ti",
      "amic ##itiae",
      "inter ##dum",
      "pass ##us",
      "Socr ##ates",
      "rel ##ic",
      "inferi ##or",
      "instru ##xit",
      "E ##li",
      "mul ##tae",
      "cunc ##tis",
      "f ##ertur",
      "##e ##amus",
      "##U ##R",
      "fid ##elibus",
      "num ##quam",
      "recip ##ere",
      "appar ##uit",
      "J ##ud",
      "M ##al",
      "v ##etus",
      "##t ##at",
      "##b ##ant",
      "##I ##C",
      "inc ##lud",
      "apostol ##is",
      "aequ ##iv",
      "imped ##itur",
      "##r ##ec",
      "tr ##an",
      "princip ##ii",
      "pl ##an",
      "ius ##tus",
      "quantit ##ate",
      "##u ##itur",
      "anim ##um"
    ]
  }
}